{
  "0": "\u0000",
  "1": "\u0001",
  "2": "\u0002",
  "3": "\u0003",
  "4": "\u0004",
  "5": "\u0005",
  "6": "\u0006",
  "7": "\u0007",
  "8": "\b",
  "9": "\t",
  "10": "\n",
  "11": "\u000b",
  "12": "\f",
  "13": "\r",
  "14": "\u000e",
  "15": "\u000f",
  "16": "\u0010",
  "17": "\u0011",
  "18": "\u0012",
  "19": "\u0013",
  "20": "\u0014",
  "21": "\u0015",
  "22": "\u0016",
  "23": "\u0017",
  "24": "\u0018",
  "25": "\u0019",
  "26": "\u001a",
  "27": "\u001b",
  "28": "\u001c",
  "29": "\u001d",
  "30": "\u001e",
  "31": "\u001f",
  "32": " ",
  "33": "!",
  "34": "\"",
  "35": "#",
  "36": "$",
  "37": "%",
  "38": "&",
  "39": "'",
  "40": "(",
  "41": ")",
  "42": "*",
  "43": "+",
  "44": ",",
  "45": "-",
  "46": ".",
  "47": "/",
  "48": "0",
  "49": "1",
  "50": "2",
  "51": "3",
  "52": "4",
  "53": "5",
  "54": "6",
  "55": "7",
  "56": "8",
  "57": "9",
  "58": ":",
  "59": ";",
  "60": "<",
  "61": "=",
  "62": ">",
  "63": "?",
  "64": "@",
  "65": "A",
  "66": "B",
  "67": "C",
  "68": "D",
  "69": "E",
  "70": "F",
  "71": "G",
  "72": "H",
  "73": "I",
  "74": "J",
  "75": "K",
  "76": "L",
  "77": "M",
  "78": "N",
  "79": "O",
  "80": "P",
  "81": "Q",
  "82": "R",
  "83": "S",
  "84": "T",
  "85": "U",
  "86": "V",
  "87": "W",
  "88": "X",
  "89": "Y",
  "90": "Z",
  "91": "[",
  "92": "\\",
  "93": "]",
  "94": "^",
  "95": "_",
  "96": "`",
  "97": "a",
  "98": "b",
  "99": "c",
  "100": "d",
  "101": "e",
  "102": "f",
  "103": "g",
  "104": "h",
  "105": "i",
  "106": "j",
  "107": "k",
  "108": "l",
  "109": "m",
  "110": "n",
  "111": "o",
  "112": "p",
  "113": "q",
  "114": "r",
  "115": "s",
  "116": "t",
  "117": "u",
  "118": "v",
  "119": "w",
  "120": "x",
  "121": "y",
  "122": "z",
  "123": "{",
  "124": "|",
  "125": "}",
  "126": "~",
  "127": "",
  "128": "",
  "129": "",
  "130": "",
  "131": "",
  "132": "",
  "133": "",
  "134": "",
  "135": "",
  "136": "",
  "137": "",
  "138": "",
  "139": "",
  "140": "",
  "141": "",
  "142": "",
  "143": "",
  "144": "",
  "145": "",
  "146": "",
  "147": "",
  "148": "",
  "149": "",
  "150": "",
  "151": "",
  "152": "",
  "153": "",
  "154": "",
  "155": "",
  "156": "",
  "157": "",
  "158": "",
  "159": "",
  "160": " ",
  "161": "¡",
  "162": "¢",
  "163": "£",
  "164": "¤",
  "165": "¥",
  "166": "¦",
  "167": "§",
  "168": "¨",
  "169": "©",
  "170": "ª",
  "171": "«",
  "172": "¬",
  "173": "­",
  "174": "®",
  "175": "¯",
  "176": "°",
  "177": "±",
  "178": "²",
  "179": "³",
  "180": "´",
  "181": "µ",
  "182": "¶",
  "183": "·",
  "184": "¸",
  "185": "¹",
  "186": "º",
  "187": "»",
  "188": "¼",
  "189": "½",
  "190": "¾",
  "191": "¿",
  "192": "À",
  "193": "Á",
  "194": "Â",
  "195": "Ã",
  "196": "Ä",
  "197": "Å",
  "198": "Æ",
  "199": "Ç",
  "200": "È",
  "201": "É",
  "202": "Ê",
  "203": "Ë",
  "204": "Ì",
  "205": "Í",
  "206": "Î",
  "207": "Ï",
  "208": "Ð",
  "209": "Ñ",
  "210": "Ò",
  "211": "Ó",
  "212": "Ô",
  "213": "Õ",
  "214": "Ö",
  "215": "×",
  "216": "Ø",
  "217": "Ù",
  "218": "Ú",
  "219": "Û",
  "220": "Ü",
  "221": "Ý",
  "222": "Þ",
  "223": "ß",
  "224": "à",
  "225": "á",
  "226": "â",
  "227": "ã",
  "228": "ä",
  "229": "å",
  "230": "æ",
  "231": "ç",
  "232": "è",
  "233": "é",
  "234": "ê",
  "235": "ë",
  "236": "ì",
  "237": "í",
  "238": "î",
  "239": "ï",
  "240": "ð",
  "241": "ñ",
  "242": "ò",
  "243": "ó",
  "244": "ô",
  "245": "õ",
  "246": "ö",
  "247": "÷",
  "248": "ø",
  "249": "ù",
  "250": "ú",
  "251": "û",
  "252": "ü",
  "253": "ý",
  "254": "þ",
  "255": "ÿ",
  "256": "Ā",
  "257": "ā",
  "258": "Č",
  "259": "č",
  "260": "Đ",
  "261": "ē",
  "262": "ĕ",
  "263": "ę",
  "264": "ğ",
  "265": "Ġ",
  "266": "Ī",
  "267": "ī",
  "268": "ł",
  "269": "ń",
  "270": "ň",
  "271": "ō",
  "272": "ŏ",
  "273": "ő",
  "274": "œ",
  "275": "ś",
  "276": "Ş",
  "277": "Š",
  "278": "š",
  "279": "ť",
  "280": "ž",
  "281": "ǎ",
  "282": "ʼ",
  "283": "ˈ",
  "284": "α",
  "285": "β",
  "286": "γ",
  "287": "ε",
  "288": "θ",
  "289": "μ",
  "290": "σ",
  "291": "τ",
  "292": "ְ",
  "293": "ֱ",
  "294": "ֲ",
  "295": "ִ",
  "296": "ֵ",
  "297": "ֶ",
  "298": "ַ",
  "299": "ָ",
  "300": "ֹ",
  "301": "ֻ",
  "302": "ּ",
  "303": "־",
  "304": "ׁ",
  "305": "׃",
  "306": "א",
  "307": "ב",
  "308": "ג",
  "309": "ד",
  "310": "ה",
  "311": "ו",
  "312": "ז",
  "313": "ח",
  "314": "י",
  "315": "ך",
  "316": "כ",
  "317": "ל",
  "318": "ם",
  "319": "מ",
  "320": "ן",
  "321": "נ",
  "322": "ע",
  "323": "פ",
  "324": "צ",
  "325": "ק",
  "326": "ר",
  "327": "ש",
  "328": "ת",
  "329": "ਆ",
  "330": "ਗ",
  "331": "ਦ",
  "332": "ਰ",
  "333": "ਾ",
  "334": "ੁ",
  "335": "Ḥ",
  "336": "‑",
  "337": "–",
  "338": "—",
  "339": "‘",
  "340": "’",
  "341": "‚",
  "342": "“",
  "343": "”",
  "344": "‟",
  "345": "†",
  "346": "‡",
  "347": "•",
  "348": "…",
  "349": "′",
  "350": "″",
  "351": "€",
  "352": "™",
  "353": "↑",
  "354": "→",
  "355": "⇐",
  "356": "−",
  "357": "∞",
  "358": "≈",
  "359": "≤",
  "360": "≥",
  "361": "⋅",
  "362": "⍺",
  "363": "♦",
  "364": "中",
  "365": "交",
  "366": "人",
  "367": "什",
  "368": "佘",
  "369": "元",
  "370": "兰",
  "371": "匯",
  "372": "叉",
  "373": "國",
  "374": "孟",
  "375": "寄",
  "376": "對",
  "377": "常",
  "378": "幣",
  "379": "您",
  "380": "感",
  "381": "最",
  "382": "果",
  "383": "梨",
  "384": "民",
  "385": "滇",
  "386": "為",
  "387": "率",
  "388": "生",
  "389": "用",
  "390": "興",
  "391": "藏",
  "392": "趣",
  "393": "麼",
  "394": "ﬂ",
  "395": "，",
  "396": "？",
  "397": "�",
  "398": "<|endoftext|>",
  "399": "eĠ",
  "400": "Ġt",
  "401": "sĠ",
  "402": "in",
  "403": "Ġth",
  "404": "an",
  "405": "er",
  "406": "dĠ",
  "407": "on",
  "408": "tĠ",
  "409": "en",
  "410": "or",
  "411": "ĠtheĠ",
  "412": ",Ġ",
  "413": "at",
  "414": "ar",
  "415": "al",
  "416": "yĠ",
  "417": "re",
  "418": "of",
  "419": "it",
  "420": ".Ġ",
  "421": "oĠ",
  "422": "ou",
  "423": "ing",
  "424": "st",
  "425": "ion",
  "426": "ic",
  "427": "andĠ",
  "428": "edĠ",
  "429": "aĠ",
  "430": "es",
  "431": "ofĠ",
  "432": "th",
  "433": "ro",
  "434": "ingĠ",
  "435": "el",
  "436": "il",
  "437": "ĠtoĠ",
  "438": "is",
  "439": "ac",
  "440": "ec",
  "441": "erĠ",
  "442": "isĠ",
  "443": "esĠ",
  "444": "ed",
  "445": "hĠ",
  "446": "inĠ",
  "447": "om",
  "448": "as",
  "449": "alĠ",
  "450": "orĠ",
  "451": "ent",
  "452": ".\n",
  "453": "ol",
  "454": "ur",
  "455": "atĠ",
  "456": "Th",
  "457": "asĠ",
  "458": "ation",
  "459": "anĠ",
  "460": "em",
  "461": "im",
  "462": "ow",
  "463": "iv",
  "464": "am",
  "465": "us",
  "466": "et",
  "467": "pl",
  "468": "ig",
  "469": "wh",
  "470": "ir",
  "471": "id",
  "472": "all",
  "473": "ch",
  "474": "un",
  "475": "os",
  "476": "enĠ",
  "477": "ul",
  "478": "pro",
  "479": "ab",
  "480": "ad",
  "481": "and",
  "482": "ev",
  "483": "ofĠtheĠ",
  "484": "eĠth",
  "485": "con",
  "486": "av",
  "487": "for",
  "488": "res",
  "489": "ag",
  "490": "TheĠ",
  "491": "entĠ",
  "492": "uc",
  "493": "ex",
  "494": "wit",
  "495": "ear",
  "496": "ap",
  "497": "areĠ",
  "498": "s,Ġ",
  "499": "if",
  "500": "ect",
  "501": "op",
  "502": "ĠthatĠ",
  "503": "com",
  "504": "ionĠ",
  "505": "forĠ",
  "506": "nĠ",
  "507": "onĠ",
  "508": "eĠt",
  "509": "ut",
  "510": "kĠ",
  "511": "our",
  "512": "um",
  "513": "ationĠ",
  "514": "ov",
  "515": "ill",
  "516": "e,Ġ",
  "517": "oc",
  "518": "int",
  "519": "ist",
  "520": "inĠtheĠ",
  "521": "lyĠ",
  "522": "oun",
  "523": "ereĠ",
  "524": "sh",
  "525": "Ġthe",
  "526": "-Ġ",
  "527": "per",
  "528": "Ġto",
  "529": "icĠ",
  "530": "cl",
  "531": "rom",
  "532": "beĠ",
  "533": "ay",
  "534": "be",
  "535": "act",
  "536": "ot",
  "537": "itĠ",
  "538": "ud",
  "539": "ep",
  "540": "ma",
  "541": "ri",
  "542": "s.Ġ",
  "543": "qu",
  "544": "bl",
  "545": "withĠ",
  "546": "est",
  "547": "igh",
  "548": "enc",
  "549": "ew",
  "550": "from",
  "551": "od",
  "552": "hav",
  "553": "eĠofĠ",
  "554": "sp",
  "555": "su",
  "556": "le",
  "557": "wasĠ",
  "558": "otĠ",
  "559": "oth",
  "560": "ersĠ",
  "561": "00",
  "562": "anc",
  "563": "ell",
  "564": "byĠ",
  "565": "eĠtheĠ",
  "566": "wor",
  "567": "sĠofĠ",
  "568": "irĠ",
  "569": "gr",
  "570": "ef",
  "571": "ityĠ",
  "572": "ldĠ",
  "573": "iesĠ",
  "574": ",ĠtheĠ",
  "575": "iveĠ",
  "576": "se",
  "577": "ess",
  "578": "ant",
  "579": "haveĠ",
  "580": "notĠ",
  "581": ".ĠTheĠ",
  "582": "art",
  "583": "ain",
  "584": "sĠandĠ",
  "585": ",ĠandĠ",
  "586": "ateĠ",
  "587": "str",
  "588": "leĠ",
  "589": "og",
  "590": "Ġc",
  "591": "ĠandĠ",
  "592": "you",
  "593": "'sĠ",
  "594": "rec",
  "595": ".ĠI",
  "596": "eĠtoĠ",
  "597": "oug",
  "598": "ouldĠ",
  "599": "pr",
  "600": "ak",
  "601": "oo",
  "602": "edĠtoĠ",
  "603": "ort",
  "604": "ourĠ",
  "605": "dis",
  "606": "form",
  "607": "fromĠ",
  "608": ":Ġ",
  "609": "ers",
  "610": "mor",
  "611": "di",
  "612": "whic",
  "613": "cont",
  "614": "y,Ġ",
  "615": "duc",
  "616": "ang",
  "617": "bu",
  "618": "iz",
  "619": "ĠthisĠ",
  "620": "Ġtr",
  "621": "illĠ",
  "622": "outĠ",
  "623": "allyĠ",
  "624": "ĠtheirĠ",
  "625": "19",
  "626": "icalĠ",
  "627": "ob",
  "628": "soĠ",
  "629": "end",
  "630": "ong",
  "631": "ĠtoĠtheĠ",
  "632": "with",
  "633": "oneĠ",
  "634": "we",
  "635": "over",
  "636": ".ĠA",
  "637": "wereĠ",
  "638": ".ĠTh",
  "639": "ind",
  "640": "pres",
  "641": "ph",
  "642": "Ġm",
  "643": "ne",
  "644": "af",
  "645": "inc",
  "646": "Ġs",
  "647": "es,Ġ",
  "648": "ingĠtheĠ",
  "649": "up",
  "650": "adĠ",
  "651": "li",
  "652": "ter",
  "653": "whichĠ",
  "654": "out",
  "655": "ureĠ",
  "656": "ass",
  "657": "dr",
  "658": "\n-Ġ",
  "659": ")Ġ",
  "660": "ment",
  "661": "ayĠ",
  "662": "atedĠ",
  "663": "canĠ",
  "664": "pos",
  "665": "ip",
  "666": "eas",
  "667": "owĠ",
  "668": "allĠ",
  "669": "atĠtheĠ",
  "670": "ialĠ",
  "671": "anyĠ",
  "672": "eĠs",
  "673": "port",
  "674": "andĠtheĠ",
  "675": "br",
  "676": "comm",
  "677": "pe",
  "678": "Ch",
  "679": "thĠ",
  "680": "ult",
  "681": "arĠ",
  "682": "hasĠ",
  "683": "ever",
  "684": "otherĠ",
  "685": "mentĠ",
  "686": "ĠtheyĠ",
  "687": "etĠ",
  "688": "ens",
  "689": "ord",
  "690": "aw",
  "691": "In",
  "692": "he",
  "693": "onĠtheĠ",
  "694": "fl",
  "695": "sc",
  "696": "erv",
  "697": "und",
  "698": "ast",
  "699": "omeĠ",
  "700": "ure",
  "701": "evel",
  "702": "pre",
  "703": "uchĠ",
  "704": "ewĠ",
  "705": "willĠ",
  "706": "ard",
  "707": "St",
  "708": "fer",
  "709": "youĠ",
  "710": "aryĠ",
  "711": "aus",
  "712": "s.\n",
  "713": "eĠandĠ",
  "714": "itsĠ",
  "715": "estĠ",
  "716": "’sĠ",
  "717": "year",
  "718": "ostĠ",
  "719": "sĠtoĠ",
  "720": "antĠ",
  "721": "hisĠ",
  "722": "ough",
  "723": "ach",
  "724": ";Ġ",
  "725": "eseĠ",
  "726": "par",
  "727": "reat",
  "728": "alsoĠ",
  "729": "yĠtheĠ",
  "730": "ight",
  "731": "ightĠ",
  "732": "butĠ",
  "733": "200",
  "734": "stud",
  "735": "edĠtheĠ",
  "736": "e.Ġ",
  "737": "\"Ġ",
  "738": "Wh",
  "739": "prov",
  "740": "weĠ",
  "741": "ousĠ",
  "742": "ĠofĠ",
  "743": "sy",
  "744": "oll",
  "745": "ies",
  "746": "moreĠ",
  "747": "kn",
  "748": "bec",
  "749": "ish",
  "750": "olog",
  "751": "20",
  "752": "eyĠ",
  "753": "ener",
  "754": "e.\n",
  "755": "ath",
  "756": "opl",
  "757": "ionsĠ",
  "758": "ound",
  "759": "whoĠ",
  "760": "att",
  "761": "eth",
  "762": "beenĠ",
  "763": "entsĠ",
  "764": "inter",
  "765": "aĠs",
  "766": "edĠinĠ",
  "767": "si",
  "768": "de",
  "769": "acc",
  "770": "ount",
  "771": "ign",
  "772": "yourĠ",
  "773": "fĠ",
  "774": "keĠ",
  "775": "arg",
  "776": "essĠ",
  "777": "stem",
  "778": "ail",
  "779": "Un",
  "780": "ity",
  "781": "elyĠ",
  "782": "reg",
  "783": "abl",
  "784": "ownĠ",
  "785": "idĠ",
  "786": "ageĠ",
  "787": "ineĠ",
  "788": "bet",
  "789": "stĠ",
  "790": "rit",
  "791": "reas",
  "792": "oodĠ",
  "793": "fir",
  "794": "Ġthem",
  "795": "mayĠ",
  "796": "fect",
  "797": "ableĠ",
  "798": "ans",
  "799": "rel",
  "800": "edĠbyĠ",
  "801": "part",
  "802": "0Ġ",
  "803": "produc",
  "804": "IĠ",
  "805": "heĠ",
  "806": "ver",
  "807": "cons",
  "808": "des",
  "809": "hadĠ",
  "810": "forĠtheĠ",
  "811": "work",
  "812": "peopl",
  "813": "evelop",
  "814": "enceĠ",
  "815": "sĠareĠ",
  "816": "ainĠ",
  "817": "fic",
  "818": "do",
  "819": "terĠ",
  "820": "mostĠ",
  "821": "hel",
  "822": "ectĠ",
  "823": "chĠ",
  "824": "clud",
  "825": "ly",
  "826": "ition",
  "827": "a,Ġ",
  "828": "eg",
  "829": "Ġtim",
  "830": "tionĠ",
  "831": "ug",
  "832": "vi",
  "833": "ack",
  "834": "dif",
  "835": "oseĠ",
  "836": "man",
  "837": "po",
  "838": "iĠ",
  "839": "ationalĠ",
  "840": "fromĠtheĠ",
  "841": "ustĠ",
  "842": "sĠinĠ",
  "843": "wouldĠ",
  "844": "er,Ġ",
  "845": "oryĠ",
  "846": "develop",
  "847": "min",
  "848": ".ĠH",
  "849": ".\nTheĠ",
  "850": "esĠofĠ",
  "851": "ameĠ",
  "852": "comp",
  "853": "spec",
  "854": "cur",
  "855": "tion",
  "856": "row",
  "857": "ech",
  "858": "aboutĠ",
  "859": "ous",
  "860": "iaĠ",
  "861": "dec",
  "862": "Ġ(",
  "863": "byĠtheĠ",
  "864": "mer",
  "865": "sel",
  "866": "berĠ",
  "867": "withĠtheĠ",
  "868": "ishĠ",
  "869": "suchĠ",
  "870": "includ",
  "871": "tĠofĠ",
  "872": "sur",
  "873": "oughĠ",
  "874": ".ĠS",
  "875": "pu",
  "876": "ideĠ",
  "877": "aĠl",
  "878": ",Ġth",
  "879": "fr",
  "880": "ari",
  "881": "mar",
  "882": "AĠ",
  "883": "chil",
  "884": "wat",
  "885": "woĠ",
  "886": ".\n-Ġ",
  "887": "sĠtheĠ",
  "888": "ed,Ġ",
  "889": "sĠthatĠ",
  "890": "gl",
  "891": "asĠtheĠ",
  "892": "ingĠtoĠ",
  "893": "own",
  "894": "co",
  "895": "but",
  "896": "Con",
  "897": "onlyĠ",
  "898": "me",
  "899": "astĠ",
  "900": "car",
  "901": "ful",
  "902": "ellĠ",
  "903": "oĠtheĠ",
  "904": "achĠ",
  "905": "med",
  "906": "18",
  "907": "oundĠ",
  "908": "rol",
  "909": "eng",
  "910": "mon",
  "911": "usĠ",
  "912": "bas",
  "913": "mĠ",
  "914": "app",
  "915": "way",
  "916": "someĠ",
  "917": "esĠandĠ",
  "918": "ationĠofĠ",
  "919": "ire",
  "920": "org",
  "921": "ust",
  "922": "fac",
  "923": "ial",
  "924": "ext",
  "925": "cho",
  "926": "Al",
  "927": "pol",
  "928": "chang",
  "929": "e-",
  "930": "iss",
  "931": "betwe",
  "932": "Ġthr",
  "933": "eĠthatĠ",
  "934": "ualĠ",
  "935": "ationsĠ",
  "936": "fe",
  "937": "lin",
  "938": "proc",
  "939": "noĠ",
  "940": "ject",
  "941": "ilĠ",
  "942": "An",
  "943": "elĠ",
  "944": "add",
  "945": "under",
  "946": "ys",
  "947": "serv",
  "948": "anceĠ",
  "949": "kingĠ",
  "950": "intoĠ",
  "951": "ĠtheseĠ",
  "952": "help",
  "953": "inv",
  "954": ".ĠB",
  "955": "ict",
  "956": "amĠ",
  "957": "stat",
  "958": "ardĠ",
  "959": "ing,Ġ",
  "960": "10",
  "961": "lif",
  "962": "Ar",
  "963": "ient",
  "964": "plac",
  "965": "ific",
  "966": "yp",
  "967": "nat",
  "968": "pat",
  "969": "fin",
  "970": "activ",
  "971": "isĠaĠ",
  "972": "prot",
  "973": "manyĠ",
  "974": "num",
  "975": "sup",
  "976": "dat",
  "977": "hum",
  "978": "whenĠ",
  "979": "not",
  "980": "ileĠ",
  "981": "ert",
  "982": "Ġthat",
  "983": "differ",
  "984": "sub",
  "985": ".ĠThisĠ",
  "986": "ood",
  "987": "ongĠ",
  "988": "peopleĠ",
  "989": "unt",
  "990": "econ",
  "991": "12",
  "992": "disc",
  "993": "system",
  "994": "requ",
  "995": "iteĠ",
  "996": "col",
  "997": "ey",
  "998": "firstĠ",
  "999": "inform",
  "1000": "sl",
  "1001": "ampl",
  "1002": "oft",
  "1003": "iceĠ",
  "1004": "enĠtheĠ",
  "1005": "how",
  "1006": "ĠthatĠtheĠ",
  "1007": "”Ġ",
  "1008": "count",
  "1009": "are",
  "1010": "cent",
  "1011": "overn",
  "1012": "isĠtheĠ",
  "1013": "itt",
  "1014": "whatĠ",
  "1015": "itiesĠ",
  "1016": "reeĠ",
  "1017": "),Ġ",
  "1018": "ivers",
  "1019": ".ĠF",
  "1020": "En",
  "1021": "herĠ",
  "1022": "ianĠ",
  "1023": "InĠ",
  "1024": "ld",
  "1025": "det",
  "1026": "oy",
  "1027": "doĠ",
  "1028": "Ġtak",
  "1029": "shouldĠ",
  "1030": "compl",
  "1031": "gener",
  "1032": "s,ĠandĠ",
  "1033": "commun",
  "1034": "ris",
  "1035": "ann",
  "1036": "ement",
  "1037": "itedĠ",
  "1038": "struc",
  "1039": "bel",
  "1040": "elect",
  "1041": "import",
  "1042": "ins",
  "1043": "loc",
  "1044": "becaus",
  "1045": "alth",
  "1046": ".ĠItĠ",
  "1047": "vir",
  "1048": "pers",
  "1049": "press",
  "1050": "lim",
  "1051": "Pro",
  "1052": "high",
  "1053": "mat",
  "1054": "ionĠofĠ",
  "1055": "fact",
  "1056": "ere",
  "1057": "mov",
  "1058": "fam",
  "1059": "oci",
  "1060": "newĠ",
  "1061": "so",
  "1062": "increas",
  "1063": "ackĠ",
  "1064": "cas",
  "1065": "resp",
  "1066": "ementĠ",
  "1067": "air",
  "1068": "ourc",
  "1069": "olut",
  "1070": ".ĠInĠ",
  "1071": "adeĠ",
  "1072": "mem",
  "1073": "ib",
  "1074": "ett",
  "1075": "lear",
  "1076": "ric",
  "1077": "ernĠ",
  "1078": "dur",
  "1079": "mod",
  "1080": "som",
  "1081": "asĠaĠ",
  "1082": "day",
  "1083": "ifĠ",
  "1084": "ingĠaĠ",
  "1085": "rat",
  "1086": "gre",
  "1087": "echn",
  "1088": "caus",
  "1089": "esĠtheĠ",
  "1090": "resear",
  "1091": "orsĠ",
  "1092": "def",
  "1093": "yĠofĠ",
  "1094": "ityĠofĠ",
  "1095": "meric",
  "1096": "old",
  "1097": "oup",
  "1098": "cell",
  "1099": "15",
  "1100": "him",
  "1101": "pt",
  "1102": "couldĠ",
  "1103": "chool",
  "1104": ".ĠM",
  "1105": "peri",
  "1106": "publ",
  "1107": "read",
  "1108": "Americ",
  "1109": "por",
  "1110": "cre",
  "1111": "dep",
  "1112": "yĠandĠ",
  "1113": "ia",
  "1114": "ship",
  "1115": "veryĠ",
  "1116": "urn",
  "1117": "abil",
  "1118": "pow",
  "1119": "outĠtheĠ",
  "1120": "ĠthereĠ",
  "1121": "stand",
  "1122": "ansĠ",
  "1123": "ĠinĠ",
  "1124": "ĠthanĠ",
  "1125": "eĠinĠ",
  "1126": "effect",
  "1127": "evenĠ",
  "1128": "\nTheĠ",
  "1129": "go",
  "1130": "ingĠandĠ",
  "1131": "arm",
  "1132": "leg",
  "1133": "ra",
  "1134": "ThisĠ",
  "1135": "eachĠ",
  "1136": "lik",
  "1137": "yĠtoĠ",
  "1138": "ĠtwoĠ",
  "1139": "partic",
  "1140": "au",
  "1141": "uralĠ",
  "1142": "uallyĠ",
  "1143": "sk",
  "1144": "stit",
  "1145": "cor",
  "1146": "istĠ",
  "1147": "workĠ",
  "1148": "eĠofĠtheĠ",
  "1149": "ksĠ",
  "1150": "famil",
  "1151": "govern",
  "1152": "ber",
  "1153": "utĠ",
  "1154": "lĠ",
  "1155": "vis",
  "1156": "itĠisĠ",
  "1157": ".ĠP",
  "1158": "On",
  "1159": "ept",
  "1160": "Com",
  "1161": "ret",
  "1162": "appl",
  "1163": "nor",
  "1164": "ation,Ġ",
  "1165": "call",
  "1166": "1Ġ",
  "1167": "olv",
  "1168": "alsĠ",
  "1169": "dist",
  "1170": "ident",
  "1171": "larg",
  "1172": "Jew",
  "1173": "aĠf",
  "1174": "childr",
  "1175": "umĠ",
  "1176": "provid",
  "1177": "ild",
  "1178": "stor",
  "1179": "likeĠ",
  "1180": "bleĠ",
  "1181": "direc",
  "1182": "stitut",
  "1183": "oldĠ",
  "1184": "bod",
  "1185": "ox",
  "1186": "upĠ",
  "1187": "diseas",
  "1188": "canĠbeĠ",
  "1189": "ollow",
  "1190": "ide",
  "1191": "?Ġ",
  "1192": "17",
  "1193": "impl",
  "1194": "land",
  "1195": "organ",
  "1196": "vari",
  "1197": "overĠ",
  "1198": "unc",
  "1199": "gen",
  "1200": "betweenĠ",
  "1201": "atingĠ",
  "1202": "SĠ",
  "1203": "cri",
  "1204": "sm",
  "1205": "her",
  "1206": "control",
  "1207": "pop",
  "1208": "ingsĠ",
  "1209": "exampl",
  "1210": "giv",
  "1211": "edĠinĠtheĠ",
  "1212": "erm",
  "1213": "lat",
  "1214": "ighĠ",
  "1215": "s.ĠTheĠ",
  "1216": "befor",
  "1217": ".ĠW",
  "1218": "mot",
  "1219": "both",
  "1220": "Ph",
  "1221": "right",
  "1222": "||",
  "1223": "ookĠ",
  "1224": "ism",
  "1225": "cap",
  "1226": "edĠaĠ",
  "1227": "exp",
  "1228": "aid",
  "1229": "group",
  "1230": "ĠthoseĠ",
  "1231": "199",
  "1232": "Mar",
  "1233": "ativeĠ",
  "1234": "ryĠ",
  "1235": "aĠt",
  "1236": "suchĠasĠ",
  "1237": "atesĠ",
  "1238": "sĠofĠtheĠ",
  "1239": "rad",
  "1240": "waterĠ",
  "1241": "cop",
  "1242": "ond",
  "1243": "mak",
  "1244": "bi",
  "1245": "hy",
  "1246": "esĠtoĠ",
  "1247": "e.",
  "1248": "grow",
  "1249": "endĠ",
  "1250": "viron",
  "1251": "know",
  "1252": "Ac",
  "1253": "blem",
  "1254": "whereĠ",
  "1255": "edĠbyĠtheĠ",
  "1256": "popul",
  "1257": "nationalĠ",
  "1258": "forc",
  "1259": "beg",
  "1260": "Fr",
  "1261": "ĠcanĠ",
  "1262": "new",
  "1263": "DĠ",
  "1264": "haveĠbeenĠ",
  "1265": "5Ġ",
  "1266": "ningĠ",
  "1267": "liv",
  "1268": "struct",
  "1269": "contin",
  "1270": "'tĠ",
  "1271": "follow",
  "1272": "cr",
  "1273": "again",
  "1274": "equ",
  "1275": "ick",
  "1276": "13",
  "1277": "result",
  "1278": "ros",
  "1279": "iev",
  "1280": "other",
  "1281": "inĠaĠ",
  "1282": "afterĠ",
  "1283": "odĠ",
  "1284": "2Ġ",
  "1285": "ub",
  "1286": "makeĠ",
  "1287": "beingĠ",
  "1288": "progr",
  "1289": "iel",
  "1290": "ĠM",
  "1291": "sĠforĠ",
  "1292": "level",
  "1293": "ĠthemĠ",
  "1294": "writ",
  "1295": "numberĠ",
  "1296": "differentĠ",
  "1297": "everĠ",
  "1298": "ost",
  "1299": "issu",
  "1300": "wellĠ",
  "1301": "omĠ",
  "1302": "hist",
  "1303": "show",
  "1304": "edĠwithĠ",
  "1305": "conc",
  "1306": "off",
  "1307": "ress",
  "1308": ":\n",
  "1309": "esĠthatĠ",
  "1310": "Res",
  "1311": "16",
  "1312": "expl",
  "1313": "justĠ",
  "1314": "muchĠ",
  "1315": "perĠ",
  "1316": "edĠandĠ",
  "1317": "continu",
  "1318": "earlyĠ",
  "1319": "itionĠ",
  "1320": "energ",
  "1321": "Ġtrans",
  "1322": "problem",
  "1323": "rev",
  "1324": "es.\n",
  "1325": "reduc",
  "1326": "wom",
  "1327": ",ĠbutĠ",
  "1328": "actĠ",
  "1329": "dem",
  "1330": "offic",
  "1331": "don",
  "1332": "ĠtoĠbeĠ",
  "1333": "e,ĠandĠ",
  "1334": "ers,Ġ",
  "1335": "perc",
  "1336": "law",
  "1337": "ook",
  "1338": "doc",
  "1339": "Univers",
  "1340": "lead",
  "1341": "aidĠ",
  "1342": "NewĠ",
  "1343": "ivid",
  "1344": ".ĠD",
  "1345": "nam",
  "1346": "possi",
  "1347": ".ĠIn",
  "1348": "usedĠ",
  "1349": "informationĠ",
  "1350": ".S",
  "1351": "ke",
  "1352": "sameĠ",
  "1353": "ifi",
  "1354": "..",
  "1355": "4Ġ",
  "1356": "ww",
  "1357": "present",
  "1358": "az",
  "1359": ".ĠT",
  "1360": "adv",
  "1361": "tr",
  "1362": "curr",
  "1363": "highĠ",
  "1364": "landĠ",
  "1365": "istsĠ",
  "1366": "anim",
  "1367": "need",
  "1368": "on,Ġ",
  "1369": "ular",
  "1370": "ribut",
  "1371": "war",
  "1372": "cour",
  "1373": "ax",
  "1374": "ItĠ",
  "1375": "Ġte",
  "1376": "ularĠ",
  "1377": "Ġthrough",
  "1378": ")\n",
  "1379": "ativ",
  "1380": "step",
  "1381": "pert",
  "1382": "yearsĠ",
  "1383": "s\n",
  "1384": "e\n",
  "1385": "sign",
  "1386": "oper",
  "1387": "ash",
  "1388": "bo",
  "1389": ",ĠwhichĠ",
  "1390": "echnolog",
  "1391": "ystem",
  "1392": "low",
  "1393": "Sc",
  "1394": "eĠisĠ",
  "1395": "dataĠ",
  "1396": ".ĠC",
  "1397": "edĠthatĠ",
  "1398": "plant",
  "1399": "humanĠ",
  "1400": "?\n",
  "1401": "earĠ",
  "1402": "consid",
  "1403": "ingĠofĠ",
  "1404": "spe",
  "1405": "eĠthanĠ",
  "1406": "hand",
  "1407": "ĠthroughĠ",
  "1408": "e,",
  "1409": "ucc",
  "1410": ".ĠWh",
  "1411": "world",
  "1412": "lo",
  "1413": "tim",
  "1414": "ever,Ġ",
  "1415": "environ",
  "1416": "gu",
  "1417": "mil",
  "1418": "esĠinĠ",
  "1419": "importantĠ",
  "1420": "health",
  "1421": "madeĠ",
  "1422": "hom",
  "1423": "pract",
  "1424": "jectĠ",
  "1425": "ies,Ġ",
  "1426": "UnitedĠ",
  "1427": "empl",
  "1428": "ienc",
  "1429": "howĠ",
  "1430": "can",
  "1431": "erĠtoĠ",
  "1432": "eirĠ",
  "1433": "miss",
  "1434": ".ĠE",
  "1435": "stillĠ",
  "1436": "ion,Ġ",
  "1437": "–Ġ",
  "1438": "erĠandĠ",
  "1439": "auth",
  "1440": "useĠ",
  "1441": "alu",
  "1442": "11",
  "1443": "en,Ġ",
  "1444": "Mus",
  "1445": "long",
  "1446": "esĠareĠ",
  "1447": "ificĠ",
  "1448": "Chr",
  "1449": "ustr",
  "1450": ",00",
  "1451": "ities",
  "1452": "phys",
  "1453": "You",
  "1454": "tĠofĠtheĠ",
  "1455": "mark",
  "1456": "willĠbeĠ",
  "1457": "edg",
  "1458": "report",
  "1459": "eĠtoĠtheĠ",
  "1460": "basedĠ",
  "1461": "oftenĠ",
  "1462": ".ĠN",
  "1463": "net",
  "1464": "He",
  "1465": "airĠ",
  "1466": "therĠ",
  "1467": "'Ġ",
  "1468": "sit",
  "1469": "ignĠ",
  "1470": "process",
  "1471": "back",
  "1472": "func",
  "1473": "ectionĠ",
  "1474": "meas",
  "1475": "school",
  "1476": "descri",
  "1477": "appro",
  "1478": "bre",
  "1479": "EĠ",
  "1480": "edĠforĠ",
  "1481": "ableĠtoĠ",
  "1482": "Par",
  "1483": "hasĠbeenĠ",
  "1484": "iallyĠ",
  "1485": "flu",
  "1486": "ry",
  "1487": "sĠ(",
  "1488": "vent",
  "1489": "iousĠ",
  "1490": "coll",
  "1491": "hear",
  "1492": "aim",
  "1493": "econom",
  "1494": "educ",
  "1495": "allow",
  "1496": "main",
  "1497": "emper",
  "1498": "cond",
  "1499": "knownĠ",
  "1500": "Gr",
  "1501": "andĠth",
  "1502": "found",
  "1503": "ont",
  "1504": "icallyĠ",
  "1505": "andĠt",
  "1506": "ationĠandĠ",
  "1507": ".ĠTheyĠ",
  "1508": "eredĠ",
  "1509": "erg",
  "1510": "grap",
  "1511": ".Ġ\"",
  "1512": "s,",
  "1513": "myĠ",
  "1514": "intoĠtheĠ",
  "1515": "du",
  "1516": "ian",
  "1517": "How",
  "1518": "mayĠbeĠ",
  "1519": "U.S",
  "1520": "aut",
  "1521": "redĠ",
  "1522": "rang",
  "1523": "bersĠ",
  "1524": "entlyĠ",
  "1525": "dom",
  "1526": "product",
  "1527": "erc",
  "1528": "rop",
  "1529": "nowĠ",
  "1530": "ste",
  "1531": "numberĠofĠ",
  "1532": "met",
  "1533": "mentĠofĠ",
  "1534": "ity,Ġ",
  "1535": "sec",
  "1536": "helpĠ",
  "1537": "o,Ġ",
  "1538": "mentalĠ",
  "1539": "althĠ",
  "1540": "getĠ",
  "1541": "withoutĠ",
  "1542": "NA",
  "1543": "fort",
  "1544": "plan",
  "1545": "ionalĠ",
  "1546": "Cent",
  "1547": "cert",
  "1548": "bir",
  "1549": "say",
  "1550": "ix",
  "1551": "AmericanĠ",
  "1552": "aboutĠtheĠ",
  "1553": "mater",
  "1554": "sever",
  "1555": "word",
  "1556": "program",
  "1557": "research",
  "1558": "was",
  "1559": "ed.\n",
  "1560": "Christ",
  "1561": "oh",
  "1562": "ipl",
  "1563": "izedĠ",
  "1564": "sĠinĠtheĠ",
  "1565": "reĠ",
  "1566": "maj",
  "1567": "require",
  "1568": "withĠaĠ",
  "1569": "ĠS",
  "1570": ".ĠR",
  "1571": "’tĠ",
  "1572": "wayĠ",
  "1573": ".ĠO",
  "1574": "sug",
  "1575": "lessĠ",
  "1576": "inceĠ",
  "1577": "doesĠ",
  "1578": "olution",
  "1579": "any",
  "1580": ",ĠaĠ",
  "1581": "bothĠ",
  "1582": "emperat",
  "1583": "meth",
  "1584": "prof",
  "1585": "portĠ",
  "1586": "hal",
  "1587": "respon",
  "1588": "by",
  "1589": "person",
  "1590": "down",
  "1591": ",ĠM",
  "1592": "bro",
  "1593": "ott",
  "1594": "tt",
  "1595": "ĠisĠ",
  "1596": "quest",
  "1597": "del",
  "1598": "childrenĠ",
  "1599": "percentĠ",
  "1600": "dayĠ",
  "1601": "pur",
  "1602": "NationalĠ",
  "1603": "ally",
  "1604": "ern",
  "1605": "edĠtoĠtheĠ",
  "1606": "sĠaĠ",
  "1607": ".\"",
  "1608": "aceĠ",
  "1609": "canc",
  "1610": "ofĠtheirĠ",
  "1611": "ical",
  "1612": "Ġthin",
  "1613": "moreĠthanĠ",
  "1614": "succ",
  "1615": "perform",
  "1616": "occur",
  "1617": "14",
  "1618": "Nor",
  "1619": "aveĠ",
  "1620": "involv",
  "1621": "didĠ",
  "1622": "goodĠ",
  "1623": "bloodĠ",
  "1624": "red",
  "1625": "Gre",
  "1626": ".,Ġ",
  "1627": "gĠ",
  "1628": "ocialĠ",
  "1629": "scient",
  "1630": "direct",
  "1631": ".\nS",
  "1632": "complet",
  "1633": "pot",
  "1634": "Col",
  "1635": "view",
  "1636": ".\nA",
  "1637": "governmentĠ",
  "1638": "e.ĠTheĠ",
  "1639": "ock",
  "1640": "iseĠ",
  "1641": "run",
  "1642": "acter",
  "1643": "3Ġ",
  "1644": "ah",
  "1645": "sĠwereĠ",
  "1646": "seeĠ",
  "1647": "UnitedĠSt",
  "1648": "becauseĠ",
  "1649": "mustĠ",
  "1650": "WhatĠ",
  "1651": "emberĠ",
  "1652": "whileĠ",
  "1653": "put",
  "1654": "Ġtyp",
  "1655": "foundĠ",
  "1656": "sol",
  "1657": "usingĠ",
  "1658": "design",
  "1659": ".ĠL",
  "1660": "30",
  "1661": "ory",
  "1662": "well",
  "1663": "seĠ",
  "1664": "wher",
  "1665": "ersĠandĠ",
  "1666": "Ġtreat",
  "1667": "Wor",
  "1668": "rot",
  "1669": "Inter",
  "1670": "Tr",
  "1671": "imp",
  "1672": "fectĠ",
  "1673": "char",
  "1674": "Med",
  "1675": "o-",
  "1676": "amin",
  "1677": "lesĠ",
  "1678": "outh",
  "1679": "erĠofĠ",
  "1680": "lef",
  "1681": "bor",
  "1682": "aseĠ",
  "1683": "Pr",
  "1684": "ek",
  "1685": "pressureĠ",
  "1686": "CĠ",
  "1687": "ientĠ",
  "1688": "studentsĠ",
  "1689": "ym",
  "1690": "ures",
  "1691": "ereĠareĠ",
  "1692": "iat",
  "1693": "wer",
  "1694": "8Ġ",
  "1695": "pec",
  "1696": "everyĠ",
  "1697": "individ",
  "1698": "addition",
  "1699": "ingĠinĠ",
  "1700": "rightĠ",
  "1701": "mus",
  "1702": "exc",
  "1703": "ought",
  "1704": "imag",
  "1705": "manag",
  "1706": "e,ĠtheĠ",
  "1707": "e:Ġ",
  "1708": "keep",
  "1709": ".ĠAn",
  "1710": "fiel",
  "1711": "dev",
  "1712": "want",
  "1713": "eĠtheyĠ",
  "1714": "eb",
  "1715": ".ĠAl",
  "1716": "chem",
  "1717": "self",
  "1718": "studyĠ",
  "1719": "ilyĠ",
  "1720": "record",
  "1721": "mun",
  "1722": "contain",
  "1723": "electr",
  "1724": "play",
  "1725": "rul",
  "1726": "includingĠ",
  "1727": "intĠ",
  "1728": "polit",
  "1729": "ociet",
  "1730": "employ",
  "1731": "great",
  "1732": "researchĠ",
  "1733": "los",
  "1734": "ireĠ",
  "1735": ",\n",
  "1736": "ather",
  "1737": "ith",
  "1738": "calledĠ",
  "1739": "init",
  "1740": "6Ġ",
  "1741": "which",
  "1742": "ali",
  "1743": "experi",
  "1744": "bus",
  "1745": "artic",
  "1746": "anal",
  "1747": "clos",
  "1748": "beforeĠ",
  "1749": "isĠnotĠ",
  "1750": "vers",
  "1751": "point",
  "1752": "pris",
  "1753": "00Ġ",
  "1754": "ForĠ",
  "1755": "star",
  "1756": "mightĠ",
  "1757": "pass",
  "1758": "illionĠ",
  "1759": "TĠ",
  "1760": "ĠtimeĠ",
  "1761": "ump",
  "1762": "Ġthis",
  "1763": "lifeĠ",
  "1764": "Ex",
  "1765": "duringĠ",
  "1766": "eĠtheirĠ",
  "1767": "ual",
  "1768": "start",
  "1769": "sid",
  "1770": "greatĠ",
  "1771": "establ",
  "1772": "oneĠofĠtheĠ",
  "1773": "theĠ",
  "1774": "IfĠ",
  "1775": ").\n",
  "1776": ".ĠAĠ",
  "1777": "ofĠthisĠ",
  "1778": "happ",
  "1779": ",\"Ġ",
  "1780": "qual",
  "1781": "prim",
  "1782": "less",
  "1783": "aĠm",
  "1784": "non",
  "1785": "strat",
  "1786": "prote",
  "1787": "der",
  "1788": "lab",
  "1789": "”\n",
  "1790": "s.ĠTh",
  "1791": "italĠ",
  "1792": "eiv",
  "1793": "amp",
  "1794": "inn",
  "1795": "clim",
  "1796": "indĠ",
  "1797": "cat",
  "1798": "As",
  "1799": "fre",
  "1800": "interest",
  "1801": "ologicalĠ",
  "1802": "commonĠ",
  "1803": "energyĠ",
  "1804": "ean",
  "1805": "gest",
  "1806": "seem",
  "1807": "har",
  "1808": "Ġtri",
  "1809": "te",
  "1810": "ledg",
  "1811": "localĠ",
  "1812": "It",
  "1813": "wasĠtheĠ",
  "1814": "aĠandĠ",
  "1815": "ationĠofĠtheĠ",
  "1816": "eĠto",
  "1817": "get",
  "1818": "ben",
  "1819": "ograp",
  "1820": "powerĠ",
  "1821": "iesĠofĠ",
  "1822": "Ġcent",
  "1823": "observ",
  "1824": "icsĠ",
  "1825": "ary",
  "1826": "bur",
  "1827": "uresĠ",
  "1828": "ultĠ",
  "1829": "appear",
  "1830": "|\n",
  "1831": "object",
  "1832": "ickĠ",
  "1833": "imil",
  "1834": "yn",
  "1835": "asĠwellĠ",
  "1836": "assĠ",
  "1837": "compar",
  "1838": "creat",
  "1839": "Dr",
  "1840": "underĠ",
  "1841": "For",
  "1842": "akeĠ",
  "1843": "iqu",
  "1844": "eĠtr",
  "1845": "bin",
  "1846": "neg",
  "1847": "ityĠtoĠ",
  "1848": "nalĠ",
  "1849": "ection",
  "1850": "build",
  "1851": "WeĠ",
  "1852": "ĠtakeĠ",
  "1853": "class",
  "1854": "dam",
  "1855": "uss",
  "1856": "anotherĠ",
  "1857": "orig",
  "1858": "7Ġ",
  "1859": "Engl",
  "1860": "polic",
  "1861": "oughtĠ",
  "1862": "hor",
  "1863": "extĠ",
  "1864": "light",
  "1865": "ct",
  "1866": "itĠwasĠ",
  "1867": "lov",
  "1868": "onĠaĠ",
  "1869": ",ĠtheyĠ",
  "1870": "Eu",
  "1871": "fur",
  "1872": "s,ĠtheĠ",
  "1873": "LĠ",
  "1874": "s:Ġ",
  "1875": "__",
  "1876": ".\"Ġ",
  "1877": "avail",
  "1878": "shouldĠbeĠ",
  "1879": "valu",
  "1880": "sourc",
  "1881": "hab",
  "1882": "allĠtheĠ",
  "1883": "sens",
  "1884": "support",
  "1885": "inalĠ",
  "1886": "ia,Ġ",
  "1887": "ould",
  "1888": "Isl",
  "1889": "ismĠ",
  "1890": "mag",
  "1891": "arr",
  "1892": "kĠofĠ",
  "1893": "event",
  "1894": "buil",
  "1895": ",ĠorĠ",
  "1896": "eful",
  "1897": "eh",
  "1898": "cal",
  "1899": "aĠb",
  "1900": "lay",
  "1901": "earchĠ",
  "1902": "Mor",
  "1903": "remain",
  "1904": "knowledg",
  "1905": "againstĠ",
  "1906": "Muslim",
  "1907": "severalĠ",
  "1908": "fulĠ",
  "1909": "ine",
  "1910": "angu",
  "1911": "Joh",
  "1912": "Ġtest",
  "1913": "resourc",
  "1914": "9Ġ",
  "1915": "&Ġ",
  "1916": "entialĠ",
  "1917": "err",
  "1918": "saf",
  "1919": "publicĠ",
  "1920": "author",
  "1921": "25",
  "1922": "Sp",
  "1923": "JewishĠ",
  "1924": "lastĠ",
  "1925": "ofĠtheseĠ",
  "1926": "vol",
  "1927": "propert",
  "1928": "applic",
  "1929": "dig",
  "1930": "list",
  "1931": "after",
  "1932": "Ġtrad",
  "1933": "cult",
  "1934": "establish",
  "1935": "surv",
  "1936": "expos",
  "1937": "find",
  "1938": "ank",
  "1939": "Cl",
  "1940": "Ġtechnolog",
  "1941": "ely",
  "1942": "norm",
  "1943": "worldĠ",
  "1944": "now",
  "1945": "etherĠ",
  "1946": "osph",
  "1947": "nec",
  "1948": "said",
  "1949": "Chin",
  "1950": ",000Ġ",
  "1951": "hous",
  "1952": "ĠofĠtheĠ",
  "1953": "kid",
  "1954": "eĠ(",
  "1955": "exist",
  "1956": "mean",
  "1957": "eryĠ",
  "1958": "just",
  "1959": "jo",
  "1960": "downĠ",
  "1961": "sym",
  "1962": "aint",
  "1963": "2012",
  "1964": "ounc",
  "1965": "naturalĠ",
  "1966": "believ",
  "1967": "ioĠ",
  "1968": "improv",
  "1969": "comput",
  "1970": "rem",
  "1971": "avel",
  "1972": "aug",
  "1973": "every",
  "1974": "needĠtoĠ",
  "1975": "duringĠtheĠ",
  "1976": ".ĠHeĠ",
  "1977": "pri",
  "1978": "UN",
  "1979": "stateĠ",
  "1980": "es,ĠandĠ",
  "1981": "edĠasĠ",
  "1982": "enceĠofĠ",
  "1983": "ebr",
  "1984": "centr",
  "1985": "lightĠ",
  "1986": "omat",
  "1987": "Ear",
  "1988": "Pres",
  "1989": "organiz",
  "1990": "kill",
  "1991": "Can",
  "1992": "ogn",
  "1993": "inĠthisĠ",
  "1994": "provideĠ",
  "1995": "mult",
  "1996": "doct",
  "1997": "fish",
  "1998": "womenĠ",
  "1999": "God",
  "2000": "findĠ",
  "2001": "ingĠthatĠ",
  "2002": "--Ġ",
  "2003": "learn",
  "2004": ".ĠForĠ",
  "2005": ".\"\n",
  "2006": "Is",
  "2007": "overĠtheĠ",
  "2008": "al,Ġ",
  "2009": "Ġcentur",
  "2010": "represent",
  "2011": "usuallyĠ",
  "2012": "ortĠ",
  "2013": "forĠaĠ",
  "2014": "encyĠ",
  "2015": "ok",
  "2016": "ermin",
  "2017": "ly,Ġ",
  "2018": "sĠwithĠ",
  "2019": "sequ",
  "2020": "s.",
  "2021": "itiveĠ",
  "2022": "olec",
  "2023": "hol",
  "2024": "had",
  "2025": "obalĠ",
  "2026": "stre",
  "2027": "claim",
  "2028": "ittleĠ",
  "2029": "becomeĠ",
  "2030": "ueĠ",
  "2031": "hib",
  "2032": "selv",
  "2033": "sĠorĠ",
  "2034": "foc",
  "2035": "suggest",
  "2036": "sheĠ",
  "2037": "lineĠ",
  "2038": "real",
  "2039": "Se",
  "2040": "ityĠandĠ",
  "2041": "ĠthreeĠ",
  "2042": "foodĠ",
  "2043": ")ĠandĠ",
  "2044": "icat",
  "2045": "socialĠ",
  "2046": "surfac",
  "2047": "ung",
  "2048": "grad",
  "2049": "fail",
  "2050": "dest",
  "2051": "consider",
  "2052": "mainĠ",
  "2053": "conn",
  "2054": "fil",
  "2055": "youn",
  "2056": "wid",
  "2057": "Pl",
  "2058": "ask",
  "2059": "busin",
  "2060": "drug",
  "2061": "let",
  "2062": "action",
  "2063": "usedĠtoĠ",
  "2064": "betweenĠtheĠ",
  "2065": "onc",
  "2066": "Dec",
  "2067": "backĠ",
  "2068": "50",
  "2069": "suppl",
  "2070": "rac",
  "2071": "arch",
  "2072": "infect",
  "2073": "majorĠ",
  "2074": "benef",
  "2075": "edĠto",
  "2076": "enn",
  "2077": "nation",
  "2078": "bed",
  "2079": "ude",
  "2080": "ĠtheyĠareĠ",
  "2081": "practic",
  "2082": ",ĠtoĠ",
  "2083": "publish",
  "2084": "ograph",
  "2085": "setĠ",
  "2086": "ingĠtoĠtheĠ",
  "2087": "yearĠ",
  "2088": "eder",
  "2089": "ubl",
  "2090": "exper",
  "2091": ".\nTh",
  "2092": "CO",
  "2093": "eĠtim",
  "2094": "pit",
  "2095": "vill",
  "2096": "about",
  "2097": "esĠaĠ",
  "2098": "tionĠofĠ",
  "2099": "profess",
  "2100": "simpl",
  "2101": "ToĠ",
  "2102": "suf",
  "2103": ".ĠHow",
  "2104": "orĠofĠ",
  "2105": "ereĠisĠ",
  "2106": "personĠ",
  "2107": "hard",
  "2108": "affect",
  "2109": "198",
  "2110": "waysĠ",
  "2111": ".ĠIfĠ",
  "2112": "lookĠ",
  "2113": "healthĠ",
  "2114": "ledĠ",
  "2115": "fo",
  "2116": "function",
  "2117": "is,Ġ",
  "2118": "sal",
  "2119": "inst",
  "2120": "or,Ġ",
  "2121": "systemĠ",
  "2122": "receiv",
  "2123": "aroundĠ",
  "2124": "xim",
  "2125": "project",
  "2126": "akĠ",
  "2127": "uredĠ",
  "2128": ".\nB",
  "2129": "putĠ",
  "2130": ".Ġ(",
  "2131": "eit",
  "2132": "Sh",
  "2133": "ers.Ġ",
  "2134": "atelyĠ",
  "2135": "food",
  "2136": "evid",
  "2137": "prob",
  "2138": "Ad",
  "2139": "pp",
  "2140": "udej",
  "2141": "diffic",
  "2142": "doesĠnotĠ",
  "2143": "10Ġ",
  "2144": "pul",
  "2145": "youĠcanĠ",
  "2146": "ĠthroughĠtheĠ",
  "2147": "presentĠ",
  "2148": "Re",
  "2149": "siz",
  "2150": "areaĠ",
  "2151": "etim",
  "2152": "refer",
  "2153": "ountĠ",
  "2154": "necess",
  "2155": "medic",
  "2156": "economicĠ",
  "2157": "www",
  "2158": ".\nH",
  "2159": "Ġthan",
  "2160": "Yor",
  "2161": "pap",
  "2162": "childĠ",
  "2163": "spect",
  "2164": "ainingĠ",
  "2165": ".ĠOn",
  "2166": "useĠofĠ",
  "2167": "manĠ",
  "2168": "variousĠ",
  "2169": "espec",
  "2170": "oss",
  "2171": "Pol",
  "2172": "actionĠ",
  "2173": "uaryĠ",
  "2174": "inĠtheirĠ",
  "2175": "abov",
  "2176": "first",
  "2177": "idd",
  "2178": "ward",
  "2179": "thĠcentur",
  "2180": "ahĠ",
  "2181": "www.",
  "2182": "depend",
  "2183": "eanĠ",
  "2184": "phot",
  "2185": "countri",
  "2186": "edĠfromĠ",
  "2187": "veĠ",
  "2188": "minist",
  "2189": "currentĠ",
  "2190": "will",
  "2191": "langu",
  "2192": "areasĠ",
  "2193": "around",
  "2194": "conduc",
  "2195": "prec",
  "2196": "north",
  "2197": "certainĠ",
  "2198": "Or",
  "2199": "Ass",
  "2200": "outhĠ",
  "2201": "Mudej",
  "2202": "knowĠ",
  "2203": "bestĠ",
  "2204": "discover",
  "2205": "mic",
  "2206": "secon",
  "2207": "twoĠ",
  "2208": "material",
  "2209": "AN",
  "2210": "example,Ġ",
  "2211": "esĠ(",
  "2212": "small",
  "2213": "fiveĠ",
  "2214": "atĠle",
  "2215": "ser",
  "2216": "Indi",
  "2217": "cy",
  "2218": "what",
  "2219": "U.S.Ġ",
  "2220": "onsĠ",
  "2221": "workingĠ",
  "2222": "itor",
  "2223": "wouldĠbeĠ",
  "2224": "whol",
  "2225": "accord",
  "2226": "becom",
  "2227": "ectedĠ",
  "2228": "oph",
  "2229": "echan",
  "2230": "ifiedĠ",
  "2231": "opĠ",
  "2232": "maint",
  "2233": ":\n-Ġ",
  "2234": "epar",
  "2235": ",ĠS",
  "2236": "ouslyĠ",
  "2237": "isĠtoĠ",
  "2238": "sun",
  "2239": "Ġteach",
  "2240": "student",
  "2241": "haveĠaĠ",
  "2242": "xĠ",
  "2243": "habit",
  "2244": "emiss",
  "2245": "mis",
  "2246": "mentsĠ",
  "2247": "familyĠ",
  "2248": "’Ġ",
  "2249": "discuss",
  "2250": "understand",
  "2251": "access",
  "2252": "osĠ",
  "2253": "ther",
  "2254": "neverĠ",
  "2255": "politicalĠ",
  "2256": "invest",
  "2257": "tĠtheĠ",
  "2258": "anceĠofĠ",
  "2259": ",Ġ200",
  "2260": "frequ",
  "2261": "UniversityĠofĠ",
  "2262": "post",
  "2263": "experienc",
  "2264": "cir",
  "2265": "ablyĠ",
  "2266": "wind",
  "2267": "ium",
  "2268": "El",
  "2269": "himĠ",
  "2270": "tĠandĠ",
  "2271": ".ĠTheseĠ",
  "2272": "esĠforĠ",
  "2273": "fig",
  "2274": ".ĠButĠ",
  "2275": "ument",
  "2276": "eĠthem",
  "2277": "ĠthenĠ",
  "2278": "Ġtow",
  "2279": "shipĠ",
  "2280": "CD",
  "2281": "iter",
  "2282": "doĠnotĠ",
  "2283": "Cont",
  "2284": "NewĠYor",
  "2285": "fourĠ",
  "2286": "ithĠ",
  "2287": "betterĠ",
  "2288": "ich",
  "2289": "syn",
  "2290": "//",
  "2291": "histor",
  "2292": "iumĠ",
  "2293": "ES",
  "2294": "-t",
  "2295": "comeĠ",
  "2296": "mitt",
  "2297": "lor",
  "2298": "ally,Ġ",
  "2299": "urĠ",
  "2300": "placeĠ",
  "2301": "Ge",
  "2302": "WhenĠ",
  "2303": "effectĠ",
  "2304": "olutionĠ",
  "2305": "asĠwellĠasĠ",
  "2306": "and,Ġ",
  "2307": "athĠ",
  "2308": "estim",
  "2309": "agn",
  "2310": "jur",
  "2311": "ure,Ġ",
  "2312": "eticĠ",
  "2313": "Jan",
  "2314": "—Ġ",
  "2315": "iment",
  "2316": "big",
  "2317": "physicalĠ",
  "2318": "crit",
  "2319": "havi",
  "2320": "s.\nTheĠ",
  "2321": "iver",
  "2322": "longĠ",
  "2323": "antsĠ",
  "2324": ".\n\"",
  "2325": "ensĠ",
  "2326": "ureĠofĠ",
  "2327": "possibl",
  "2328": "followingĠ",
  "2329": "selfĠ",
  "2330": "PĠ",
  "2331": "signific",
  "2332": "acros",
  "2333": "roduc",
  "2334": "Car",
  "2335": ".\nInĠ",
  "2336": "fut",
  "2337": "associ",
  "2338": ".”\n",
  "2339": "enĠtoĠ",
  "2340": "II",
  "2341": "Ġtemperat",
  "2342": "yingĠ",
  "2343": "largeĠ",
  "2344": "radi",
  "2345": "fric",
  "2346": "princ",
  "2347": "identĠ",
  "2348": "ekĠ",
  "2349": "method",
  "2350": "globalĠ",
  "2351": "ptom",
  "2352": "ilityĠ",
  "2353": "hap",
  "2354": "Ġtre",
  "2355": "ingleĠ",
  "2356": "eĠthisĠ",
  "2357": "describ",
  "2358": "water",
  "2359": "processĠ",
  "2360": "ongĠtheĠ",
  "2361": "particip",
  "2362": "augh",
  "2363": "i,Ġ",
  "2364": "disord",
  "2365": "nessĠ",
  "2366": "Rus",
  "2367": "cul",
  "2368": "Institut",
  "2369": "eĠforĠ",
  "2370": "aud",
  "2371": "head",
  "2372": "Dis",
  "2373": "aver",
  "2374": "goĠ",
  "2375": "k,Ġ",
  "2376": "ageĠofĠ",
  "2377": ".ĠWeĠ",
  "2378": "ttp",
  "2379": "whenĠtheĠ",
  "2380": "mad",
  "2381": "power",
  "2382": "esĠinĠtheĠ",
  "2383": "andĠtoĠ",
  "2384": "bul",
  "2385": "information",
  "2386": "esĠwereĠ",
  "2387": "rope",
  "2388": "prev",
  "2389": "Char",
  "2390": "itionsĠ",
  "2391": "farĠ",
  "2392": "ainedĠ",
  "2393": "nes",
  "2394": "es.ĠTheĠ",
  "2395": "esĠofĠtheĠ",
  "2396": "Ġthemselv",
  "2397": "sĠonĠ",
  "2398": "activeĠ",
  "2399": "notĠbeĠ",
  "2400": "Br",
  "2401": "Stud",
  "2402": "http",
  "2403": "ER",
  "2404": "particular",
  "2405": "Canad",
  "2406": "shar",
  "2407": "cit",
  "2408": "sonĠ",
  "2409": "GodĠ",
  "2410": "igr",
  "2411": "fund",
  "2412": "readyĠ",
  "2413": "40",
  "2414": "pi",
  "2415": "remov",
  "2416": "recogn",
  "2417": "197",
  "2418": ",”Ġ",
  "2419": "Di",
  "2420": "cord",
  "2421": "AT",
  "2422": "ansp",
  "2423": "atherĠ",
  "2424": "didĠnotĠ",
  "2425": "path",
  "2426": "hour",
  "2427": "aleĠ",
  "2428": "Ab",
  "2429": "://",
  "2430": "driv",
  "2431": "sul",
  "2432": "book",
  "2433": "ofĠth",
  "2434": "n'tĠ",
  "2435": "erefor",
  "2436": "specificĠ",
  "2437": "imin",
  "2438": "Rep",
  "2439": "untilĠ",
  "2440": "Bl",
  "2441": "jud",
  "2442": "abs",
  "2443": "fri",
  "2444": "draw",
  "2445": "InĠtheĠ",
  "2446": "sĠtoĠtheĠ",
  "2447": "internationalĠ",
  "2448": "ologyĠ",
  "2449": "success",
  "2450": "eal",
  "2451": "Min",
  "2452": "determin",
  "2453": "sam",
  "2454": "JohnĠ",
  "2455": "i-",
  "2456": "web",
  "2457": "hold",
  "2458": "demon",
  "2459": "sett",
  "2460": "behavi",
  "2461": "sure",
  "2462": "leftĠ",
  "2463": "IN",
  "2464": "combin",
  "2465": "animal",
  "2466": "edĠonĠ",
  "2467": "readĠ",
  "2468": "alter",
  "2469": "osisĠ",
  "2470": "ĠtooĠ",
  "2471": "OĠ",
  "2472": "Europe",
  "2473": "Cor",
  "2474": "opt",
  "2475": "23",
  "2476": "sĠfromĠ",
  "2477": "ated",
  "2478": "especiallyĠ",
  "2479": "1-",
  "2480": "speciesĠ",
  "2481": "ockĠ",
  "2482": "when",
  "2483": "Qu",
  "2484": "bodyĠ",
  "2485": "ief",
  "2486": "http://",
  "2487": "ik",
  "2488": "dro",
  "2489": "ength",
  "2490": "hon",
  "2491": "whil",
  "2492": "YouĠ",
  "2493": "responsi",
  "2494": "Ġtoo",
  "2495": "child",
  "2496": "underst",
  "2497": "oftw",
  "2498": "ingt",
  "2499": "condition",
  "2500": "y.\n",
  "2501": "untingĠ",
  "2502": "sideĠ",
  "2503": "alt",
  "2504": "ustri",
  "2505": "dueĠtoĠ",
  "2506": "Ġtw",
  "2507": "bal",
  "2508": "sust",
  "2509": "HeĠ",
  "2510": "ofĠaĠ",
  "2511": "oil",
  "2512": "viol",
  "2513": "pag",
  "2514": "includeĠ",
  "2515": "mosph",
  "2516": "color",
  "2517": "bit",
  "2518": "effort",
  "2519": "formĠ",
  "2520": "pingĠ",
  "2521": "intell",
  "2522": "influ",
  "2523": "ienceĠ",
  "2524": "developmentĠ",
  "2525": "simil",
  "2526": "iredĠ",
  "2527": "menĠ",
  "2528": "ME",
  "2529": "ementsĠ",
  "2530": "stri",
  "2531": "urnĠ",
  "2532": "decis",
  "2533": "playĠ",
  "2534": "partĠofĠtheĠ",
  "2535": "itiv",
  "2536": "ether",
  "2537": "|\n|",
  "2538": "Russi",
  "2539": "model",
  "2540": "Brit",
  "2541": "medicalĠ",
  "2542": "leas",
  "2543": "lic",
  "2544": "ersĠtoĠ",
  "2545": "king",
  "2546": "non-",
  "2547": "fa",
  "2548": "edĠatĠ",
  "2549": "able",
  "2550": "1,Ġ",
  "2551": "eptĠ",
  "2552": "reallyĠ",
  "2553": "milit",
  "2554": "feat",
  "2555": "AS",
  "2556": "amongĠ",
  "2557": "epĠ",
  "2558": ".ĠItĠisĠ",
  "2559": "Jul",
  "2560": "deĠ",
  "2561": "someth",
  "2562": "fall",
  "2563": "complex",
  "2564": "contr",
  "2565": "refl",
  "2566": "illion",
  "2567": "wasĠaĠ",
  "2568": "alleng",
  "2569": "100",
  "2570": "express",
  "2571": "begin",
  "2572": "Afric",
  "2573": "protect",
  "2574": "leav",
  "2575": "empt",
  "2576": "mechan",
  "2577": "orĠtheĠ",
  "2578": "orderĠtoĠ",
  "2579": "earch",
  "2580": "oid",
  "2581": "ionĠofĠtheĠ",
  "2582": "sum",
  "2583": "fru",
  "2584": "ateĠtheĠ",
  "2585": "communityĠ",
  "2586": "carb",
  "2587": "erap",
  "2588": "yl",
  "2589": "AndĠ",
  "2590": "regard",
  "2591": "epend",
  "2592": "scre",
  "2593": "important",
  "2594": "did",
  "2595": "introduc",
  "2596": "ations,Ġ",
  "2597": "molec",
  "2598": "nextĠ",
  "2599": "portun",
  "2600": "contribut",
  "2601": "consist",
  "2602": "alwaysĠ",
  "2603": "alreadyĠ",
  "2604": "makingĠ",
  "2605": ",Ġt",
  "2606": "room",
  "2607": "near",
  "2608": "climateĠ",
  "2609": "areĠtheĠ",
  "2610": "aysĠ",
  "2611": ")\n-Ġ",
  "2612": "defin",
  "2613": "UnitedĠStatesĠ",
  "2614": "apt",
  "2615": "vict",
  "2616": "recentĠ",
  "2617": "opportun",
  "2618": "priv",
  "2619": "isticĠ",
  "2620": "rob",
  "2621": "bar",
  "2622": "human",
  "2623": ".ĠInĠtheĠ",
  "2624": "createĠ",
  "2625": "achiev",
  "2626": "ibleĠ",
  "2627": ".\nM",
  "2628": ".ĠG",
  "2629": "es\n",
  "2630": "itionalĠ",
  "2631": "relig",
  "2632": "d,Ġ",
  "2633": "ButĠ",
  "2634": "pointĠ",
  "2635": "roc",
  "2636": "ChristianĠ",
  "2637": "freeĠ",
  "2638": "conf",
  "2639": "difficult",
  "2640": "generalĠ",
  "2641": "changeĠ",
  "2642": "ensiveĠ",
  "2643": "ingĠs",
  "2644": "poll",
  "2645": "charg",
  "2646": "apĠ",
  "2647": "givenĠ",
  "2648": "relation",
  "2649": "uĠ",
  "2650": "subject",
  "2651": "becameĠ",
  "2652": "iedĠ",
  "2653": "AR",
  "2654": "Ev",
  "2655": "e.\nTheĠ",
  "2656": "plantĠ",
  "2657": "Jun",
  "2658": "aroundĠtheĠ",
  "2659": "reach",
  "2660": "aliz",
  "2661": "butĠtheĠ",
  "2662": "regul",
  "2663": "s.ĠS",
  "2664": "agre",
  "2665": "almostĠ",
  "2666": "oryĠofĠ",
  "2667": "ĠtoĠaĠ",
  "2668": "e'sĠ",
  "2669": "anch",
  "2670": "round",
  "2671": "spac",
  "2672": "echniqu",
  "2673": "in,Ġ",
  "2674": "]Ġ",
  "2675": "cellĠ",
  "2676": "seenĠ",
  "2677": "ingĠt",
  "2678": "evolution",
  "2679": "ĠmillionĠ",
  "2680": "keyĠ",
  "2681": "ountĠofĠ",
  "2682": "den",
  "2683": "Franc",
  "2684": "a-",
  "2685": "emerg",
  "2686": "ingĠofĠtheĠ",
  "2687": "analys",
  "2688": "return",
  "2689": "ofĠt",
  "2690": "roy",
  "2691": "\"Ġs",
  "2692": ",ĠthatĠ",
  "2693": "detail",
  "2694": "whiteĠ",
  "2695": "flow",
  "2696": "an,Ġ",
  "2697": "fu",
  "2698": "wayĠtoĠ",
  "2699": "ardsĠ",
  "2700": "effic",
  "2701": "We",
  "2702": "exerc",
  "2703": "Hum",
  "2704": "iet",
  "2705": "--",
  "2706": "siteĠ",
  "2707": "oidĠ",
  "2708": "ResearchĠ",
  "2709": "week",
  "2710": "hadĠbeenĠ",
  "2711": "shap",
  "2712": "eat",
  "2713": "conduct",
  "2714": "edĠtoĠbeĠ",
  "2715": "WorldĠ",
  "2716": "ren",
  "2717": "yt",
  "2718": "no",
  "2719": "havingĠ",
  "2720": "ersĠofĠ",
  "2721": "rough",
  "2722": "cover",
  "2723": "ator",
  "2724": "Oct",
  "2725": "s.ĠA",
  "2726": "ionĠandĠ",
  "2727": "age,Ġ",
  "2728": "furtherĠ",
  "2729": "prog",
  "2730": "ron",
  "2731": "membersĠ",
  "2732": "ground",
  "2733": "acqu",
  "2734": "ordin",
  "2735": "isĠanĠ",
  "2736": "SA",
  "2737": "ientsĠ",
  "2738": "studiesĠ",
  "2739": "link",
  "2740": "heĠs",
  "2741": "limit",
  "2742": "ament",
  "2743": "hop",
  "2744": "patter",
  "2745": "projectĠ",
  "2746": "atĠleastĠ",
  "2747": "y-",
  "2748": "communic",
  "2749": "availableĠ",
  "2750": "ment,Ġ",
  "2751": "Arab",
  "2752": "spr",
  "2753": "independ",
  "2754": "ref",
  "2755": "compet",
  "2756": "eitherĠ",
  "2757": "ieĠ",
  "2758": "Cali",
  "2759": "pressure",
  "2760": "ner",
  "2761": "aster",
  "2762": "abet",
  "2763": "my",
  "2764": "inĠt",
  "2765": "!Ġ",
  "2766": "actuallyĠ",
  "2767": "spir",
  "2768": "ilos",
  "2769": "collect",
  "2770": "atmosph",
  "2771": "ournalĠ",
  "2772": "andĠtheirĠ",
  "2773": "22",
  "2774": "activityĠ",
  "2775": "uk",
  "2776": "don'tĠ",
  "2777": "vide",
  "2778": "fieldĠ",
  "2779": "compan",
  "2780": "wantĠtoĠ",
  "2781": "giveĠ",
  "2782": ".\nD",
  "2783": "ift",
  "2784": "egr",
  "2785": "sess",
  "2786": "character",
  "2787": "la",
  "2788": "relat",
  "2789": "UnitedĠStat",
  "2790": "/Ġ",
  "2791": "Nov",
  "2792": "eĠthatĠtheĠ",
  "2793": "rect",
  "2794": "challeng",
  "2795": "Bi",
  "2796": "neyĠ",
  "2797": "far",
  "2798": "s.ĠInĠ",
  "2799": "EN",
  "2800": "legalĠ",
  "2801": "previ",
  "2802": "prevent",
  "2803": "othersĠ",
  "2804": "liveĠ",
  "2805": "inĠ19",
  "2806": "wardĠ",
  "2807": "increasedĠ",
  "2808": ".\n“",
  "2809": "heldĠ",
  "2810": "mo",
  "2811": "variet",
  "2812": "ff",
  "2813": "wordĠ",
  "2814": "CA",
  "2815": "piec",
  "2816": "etsĠ",
  "2817": "controlĠ",
  "2818": "recomm",
  "2819": "us,Ġ",
  "2820": "littleĠ",
  "2821": "youĠareĠ",
  "2822": "ge",
  "2823": "ogen",
  "2824": "s\n-Ġ",
  "2825": "bookĠ",
  "2826": "amm",
  "2827": ".ĠAndĠ",
  "2828": "ingĠforĠ",
  "2829": "rest",
  "2830": "offĠ",
  "2831": "underĠtheĠ",
  "2832": "iesĠandĠ",
  "2833": "Us",
  "2834": "individualĠ",
  "2835": "Ġtog",
  "2836": "afterĠtheĠ",
  "2837": "And",
  "2838": "uringĠ",
  "2839": "period",
  "2840": "ed,ĠandĠ",
  "2841": "iansĠ",
  "2842": "20Ġ",
  "2843": "s.ĠThisĠ",
  "2844": "learnĠ",
  "2845": "amountĠofĠ",
  "2846": "erĠ(",
  "2847": "rep",
  "2848": ".ĠIĠ",
  "2849": "olĠ",
  "2850": "lowĠ",
  "2851": "ressĠ",
  "2852": "eĠthat",
  "2853": "forn",
  "2854": "causeĠ",
  "2855": "foss",
  "2856": "aff",
  "2857": "Em",
  "2858": "friend",
  "2859": "whyĠ",
  "2860": "oftwareĠ",
  "2861": "smallĠ",
  "2862": "extrem",
  "2863": "TH",
  "2864": "60",
  "2865": "ink",
  "2866": "position",
  "2867": "ĠtoĠt",
  "2868": "pict",
  "2869": "Californ",
  "2870": "cancerĠ",
  "2871": "heav",
  "2872": "Ġcell",
  "2873": "feder",
  "2874": "ger",
  "2875": "children",
  "2876": "Ġthey",
  "2877": "cod",
  "2878": "multipl",
  "2879": "outĠofĠ",
  "2880": "loo",
  "2881": "servic",
  "2882": "awĠ",
  "2883": "ordĠ",
  "2884": ",ĠB",
  "2885": "against",
  "2886": "clus",
  "2887": "Hist",
  "2888": "surviv",
  "2889": "les",
  "2890": "cam",
  "2891": "haveĠtoĠ",
  "2892": "higherĠ",
  "2893": "decreas",
  "2894": "eĠinĠtheĠ",
  "2895": "Im",
  "2896": "however,Ġ",
  "2897": "\nS",
  "2898": "n’tĠ",
  "2899": "asp",
  "2900": "releas",
  "2901": "ven",
  "2902": "Gu",
  "2903": "supportĠ",
  "2904": "commerc",
  "2905": "saidĠ",
  "2906": "positionĠ",
  "2907": "Park",
  "2908": "respect",
  "2909": "alĠandĠ",
  "2910": "eph",
  "2911": "factor",
  "2912": "populationĠ",
  "2913": "ĠC",
  "2914": "acid",
  "2915": ";ĠtheĠ",
  "2916": "memoryĠ",
  "2917": "some",
  "2918": "chec",
  "2919": ".\nF",
  "2920": "andĠthenĠ",
  "2921": "fterĠ",
  "2922": "approach",
  "2923": "rap",
  "2924": "div",
  "2925": "reason",
  "2926": "entionĠ",
  "2927": "epart",
  "2928": "Ġmin",
  "2929": "upĠtoĠ",
  "2930": "strong",
  "2931": "careĠ",
  "2932": "facil",
  "2933": "activitiesĠ",
  "2934": "ityĠofĠtheĠ",
  "2935": "'reĠ",
  "2936": ",ĠthisĠ",
  "2937": "devic",
  "2938": "Wash",
  "2939": "integr",
  "2940": "ater",
  "2941": "Chil",
  "2942": "short",
  "2943": "bil",
  "2944": "sĠt",
  "2945": "concern",
  "2946": "couldĠbeĠ",
  "2947": "identif",
  "2948": "izeĠ",
  "2949": "ĠthatĠisĠ",
  "2950": "e.\n-Ġ",
  "2951": "NorthĠ",
  "2952": "immun",
  "2953": "wild",
  "2954": "uck",
  "2955": "public",
  "2956": "t,Ġ",
  "2957": ",ĠinĠ",
  "2958": "imm",
  "2959": "licens",
  "2960": "print",
  "2961": "open",
  "2962": "Ed",
  "2963": "researchersĠ",
  "2964": "consum",
  "2965": "enchĠ",
  "2966": "Societ",
  "2967": "wholeĠ",
  "2968": "laterĠ",
  "2969": "heĠwasĠ",
  "2970": "Co",
  "2971": "Gener",
  "2972": "ĠMP",
  "2973": "OnĠ",
  "2974": "fullyĠ",
  "2975": "awayĠ",
  "2976": "month",
  "2977": "learningĠ",
  "2978": "ID",
  "2979": "half",
  "2980": "distribut",
  "2981": ".ĠAsĠ",
  "2982": "break",
  "2983": "elyĠtoĠ",
  "2984": "aiĠ",
  "2985": "reportĠ",
  "2986": "investig",
  "2987": "esternĠ",
  "2988": "vit",
  "2989": "p.Ġ",
  "2990": "marri",
  "2991": "official",
  "2992": "skill",
  "2993": "separ",
  "2994": "esĠfromĠ",
  "2995": "ĠthatĠtheyĠ",
  "2996": "compon",
  "2997": "ĠtheĠt",
  "2998": "ĠthinkĠ",
  "2999": "bird",
  "3000": "ention",
  "3001": "promot",
  "3002": "alk",
  "3003": "IV",
  "3004": "specialĠ",
  "3005": "er-",
  "3006": "univers",
  "3007": ",Ġ20",
  "3008": "clear",
  "3009": "27",
  "3010": "atoryĠ",
  "3011": ",000",
  "3012": "Ag",
  "3013": "viewĠ",
  "3014": "oreĠ",
  "3015": "abilityĠtoĠ",
  "3016": "EnglishĠ",
  "3017": "burn",
  "3018": "it,Ġ",
  "3019": "aĠ(",
  "3020": "InternationalĠ",
  "3021": "edĠthatĠtheĠ",
  "3022": "ationsĠofĠ",
  "3023": "ness",
  "3024": "ivilĠ",
  "3025": "gasĠ",
  "3026": "Jon",
  "3027": "phas",
  "3028": "meet",
  "3029": "riv",
  "3030": "schoolĠ",
  "3031": "26",
  "3032": "Medic",
  "3033": "rightsĠ",
  "3034": "high-",
  "3035": "youngĠ",
  "3036": "examin",
  "3037": "Rom",
  "3038": "financ",
  "3039": "istr",
  "3040": "lowerĠ",
  "3041": "hydro",
  "3042": "HuntingĠ",
  "3043": "yncop",
  "3044": "Consul",
  "3045": "doneĠ",
  "3046": "sex",
  "3047": "feel",
  "3048": "iction",
  "3049": "50Ġ",
  "3050": "heartĠ",
  "3051": "itud",
  "3052": "interv",
  "3053": "carbonĠ",
  "3054": "urr",
  "3055": "squ",
  "3056": "field",
  "3057": "lawĠ",
  "3058": "weightĠ",
  "3059": "withinĠ",
  "3060": "periodĠ",
  "3061": "intoĠaĠ",
  "3062": "protein",
  "3063": "eed",
  "3064": "agesĠ",
  "3065": "has",
  "3066": "region",
  "3067": "environment",
  "3068": "whichĠtheĠ",
  "3069": "posedĠ",
  "3070": "Austr",
  "3071": "south",
  "3072": "cel",
  "3073": "IS",
  "3074": "alĠofĠ",
  "3075": "ĠthereĠareĠ",
  "3076": "ez",
  "3077": "missionĠ",
  "3078": "e,ĠbutĠ",
  "3079": "toĠ",
  "3080": "question",
  "3081": "netĠ",
  "3082": "bacter",
  "3083": "respond",
  "3084": "country",
  "3085": "s,ĠwhichĠ",
  "3086": "howĠtoĠ",
  "3087": "s.\n-Ġ",
  "3088": "rup",
  "3089": ").ĠTheĠ",
  "3090": "earth",
  "3091": "rout",
  "3092": "bott",
  "3093": "Alex",
  "3094": "ush",
  "3095": "brainĠ",
  "3096": "cost",
  "3097": "atterĠ",
  "3098": "proces",
  "3099": "Apr",
  "3100": "EuropeanĠ",
  "3101": "clin",
  "3102": "recommend",
  "3103": "areas",
  "3104": "partĠ",
  "3105": "mustĠbeĠ",
  "3106": "environmentalĠ",
  "3107": "ureĠandĠ",
  "3108": "Islam",
  "3109": "erĠthanĠ",
  "3110": "Aug",
  "3111": "194",
  "3112": "symptom",
  "3113": "ankĠ",
  "3114": "even",
  "3115": "partĠofĠ",
  "3116": "ifĠyouĠ",
  "3117": "Man",
  "3118": "Washingt",
  "3119": "industr",
  "3120": "providesĠ",
  "3121": "MayĠ",
  "3122": "pred",
  "3123": "asc",
  "3124": "strateg",
  "3125": "each",
  "3126": "blackĠ",
  "3127": "ay,Ġ",
  "3128": "ON",
  "3129": "eringĠ",
  "3130": "articleĠ",
  "3131": "basicĠ",
  "3132": "aj",
  "3133": "load",
  "3134": "intellect",
  "3135": "30Ġ",
  "3136": ",ĠandĠtheĠ",
  "3137": "job",
  "3138": "IT",
  "3139": "New",
  "3140": "orĠtoĠ",
  "3141": "spaceĠ",
  "3142": "aĠfewĠ",
  "3143": "dy",
  "3144": "men",
  "3145": "riskĠofĠ",
  "3146": "vot",
  "3147": "centur",
  "3148": "gas",
  "3149": "Art",
  "3150": "your",
  "3151": "nut",
  "3152": "ifĠtheĠ",
  "3153": "roleĠ",
  "3154": "illi",
  "3155": "possibleĠ",
  "3156": "withinĠtheĠ",
  "3157": "ersĠareĠ",
  "3158": "nativeĠ",
  "3159": "ĠthereĠisĠ",
  "3160": "ance,Ġ",
  "3161": "whereĠtheĠ",
  "3162": "secur",
  "3163": "OR",
  "3164": "e’sĠ",
  "3165": "aĠlarg",
  "3166": "inste",
  "3167": "sw",
  "3168": "sometim",
  "3169": "wideĠ",
  "3170": "does",
  "3171": "erĠinĠ",
  "3172": ".ĠIt",
  "3173": "enĠandĠ",
  "3174": "MĠ",
  "3175": "http://www.",
  "3176": "umb",
  "3177": "ouse",
  "3178": "conserv",
  "3179": "safet",
  "3180": "shallĠ",
  "3181": "urb",
  "3182": "indicat",
  "3183": "livingĠ",
  "3184": "stant",
  "3185": "heatĠ",
  "3186": "\"Ġ(",
  "3187": "modernĠ",
  "3188": "veh",
  "3189": "Mudejar",
  "3190": ".ĠHowever,Ġ",
  "3191": "builtĠ",
  "3192": "guid",
  "3193": "School",
  "3194": "istic",
  "3195": "hereĠ",
  "3196": "idg",
  "3197": "ai",
  "3198": "yĠinĠ",
  "3199": "4,Ġ",
  "3200": "preventĠ",
  "3201": "deathĠ",
  "3202": "diagn",
  "3203": "thingĠ",
  "3204": "eĠtreat",
  "3205": "normalĠ",
  "3206": "liter",
  "3207": "SouthĠ",
  "3208": "eter",
  "3209": "Ġtransp",
  "3210": "eĠaĠ",
  "3211": "fewĠ",
  "3212": "constitut",
  "3213": "it'sĠ",
  "3214": "good",
  "3215": ".ĠJ",
  "3216": "ĠcouldĠ",
  "3217": ",ĠthereĠ",
  "3218": "HisĠ",
  "3219": "War",
  "3220": "purpos",
  "3221": "Pe",
  "3222": "isc",
  "3223": "occ",
  "3224": "al-",
  "3225": "proteinĠ",
  "3226": "measure",
  "3227": "species",
  "3228": "programĠ",
  "3229": "atedĠwithĠ",
  "3230": "aĠsingleĠ",
  "3231": "dar",
  "3232": "obt",
  "3233": "expect",
  "3234": "key",
  "3235": "needĠ",
  "3236": "situ",
  "3237": "However,Ġ",
  "3238": "uth",
  "3239": "atĠaĠ",
  "3240": "Nat",
  "3241": "UniversityĠ",
  "3242": "FĠ",
  "3243": "29",
  "3244": "ivelyĠ",
  "3245": "seas",
  "3246": "effectiveĠ",
  "3247": "percent",
  "3248": "nameĠ",
  "3249": "physic",
  "3250": "edĠtheirĠ",
  "3251": "Govern",
  "3252": "Isra",
  "3253": ");Ġ",
  "3254": "nuc",
  "3255": "pĠ",
  "3256": ",ĠL",
  "3257": "vehic",
  "3258": "cellsĠ",
  "3259": "diabet",
  "3260": "militaryĠ",
  "3261": "beĠtheĠ",
  "3262": "damag",
  "3263": "brain",
  "3264": "whichĠisĠ",
  "3265": "answ",
  "3266": "below",
  "3267": "eĠorĠ",
  "3268": "haveĠtheĠ",
  "3269": "etc",
  "3270": "roughĠ",
  "3271": "whoseĠ",
  "3272": "sinceĠ",
  "3273": "enz",
  "3274": "patientsĠ",
  "3275": ".com",
  "3276": ".Ġ“",
  "3277": "isĠthatĠ",
  "3278": "eĠtheĠt",
  "3279": "countryĠ",
  "3280": "holdĠ",
  "3281": "preserv",
  "3282": "WarĠ",
  "3283": "e;Ġ",
  "3284": "asĠanĠ",
  "3285": "dou",
  "3286": "erousĠ",
  "3287": "pay",
  "3288": "fromĠaĠ",
  "3289": "s,ĠbutĠ",
  "3290": "resist",
  "3291": "abor",
  "3292": "5,Ġ",
  "3293": "citiz",
  "3294": "primaryĠ",
  "3295": "als",
  "3296": "plann",
  "3297": "son",
  "3298": ".ĠAc",
  "3299": "US",
  "3300": "0.",
  "3301": "atedĠbyĠ",
  "3302": "origin",
  "3303": "government",
  "3304": "ĠtookĠ",
  "3305": "oxid",
  "3306": "NAĠ",
  "3307": "scienc",
  "3308": "advanc",
  "3309": "usesĠ",
  "3310": "relativ",
  "3311": "Ġturn",
  "3312": "TheyĠ",
  "3313": "headĠ",
  "3314": "materialĠ",
  "3315": "orĠandĠ",
  "3316": ".ĠWhenĠ",
  "3317": "sĠtoĠbeĠ",
  "3318": ";ĠandĠ",
  "3319": "oilĠ",
  "3320": "groundĠ",
  "3321": "Georg",
  "3322": "fishĠ",
  "3323": "accept",
  "3324": "homeĠ",
  "3325": "artĠ",
  "3326": "gam",
  "3327": "experiment",
  "3328": "ptionĠ",
  "3329": "aĠth",
  "3330": "askĠ",
  "3331": "meĠ",
  "3332": "past",
  "3333": "fullĠ",
  "3334": "RE",
  "3335": "weĠcanĠ",
  "3336": "implement",
  "3337": "icĠandĠ",
  "3338": "aĠsm",
  "3339": "upĠtheĠ",
  "3340": "fore",
  "3341": "apeĠ",
  "3342": "bon",
  "3343": "openĠ",
  "3344": "eeĠ",
  "3345": "Of",
  "3346": "emb",
  "3347": "Jap",
  "3348": "attack",
  "3349": "arilyĠ",
  "3350": "generallyĠ",
  "3351": "riskĠ",
  "3352": "designĠ",
  "3353": "log",
  "3354": "exercis",
  "3355": "ingĠtheirĠ",
  "3356": "sustain",
  "3357": "divid",
  "3358": "east",
  "3359": "skinĠ",
  "3360": ";\n",
  "3361": "edĠanĠ",
  "3362": "ingĠisĠ",
  "3363": "writt",
  "3364": "self-",
  "3365": "sych",
  "3366": "Am",
  "3367": "originalĠ",
  "3368": "aneĠ",
  "3369": "keepĠ",
  "3370": "societ",
  "3371": "erĠofĠtheĠ",
  "3372": "fill",
  "3373": "happen",
  "3374": "sand",
  "3375": "negativeĠ",
  "3376": "s.ĠItĠ",
  "3377": "ufact",
  "3378": "Ne",
  "3379": "ralĠ",
  "3380": "full",
  "3381": "ic,Ġ",
  "3382": "farm",
  "3383": "193",
  "3384": "Nav",
  "3385": "y,ĠandĠ",
  "3386": "Web",
  "3387": "hund",
  "3388": "edĠinĠaĠ",
  "3389": "Be",
  "3390": "Earth",
  "3391": "Per",
  "3392": "groupĠ",
  "3393": "Mon",
  "3394": "bat",
  "3395": "Depart",
  "3396": "prepar",
  "3397": "judg",
  "3398": "ed.ĠTheĠ",
  "3399": "cycl",
  "3400": "fat",
  "3401": "cours",
  "3402": ".\nL",
  "3403": "ract",
  "3404": "e\n-Ġ",
  "3405": "rib",
  "3406": "00ĠMP",
  "3407": "principl",
  "3408": "Ġthes",
  "3409": "pattern",
  "3410": "administ",
  "3411": "managementĠ",
  "3412": "whetherĠ",
  "3413": "eatĠ",
  "3414": "fav",
  "3415": "Har",
  "3416": "|Ġ",
  "3417": "ibl",
  "3418": "cust",
  "3419": "efulĠ",
  "3420": "edĠonĠtheĠ",
  "3421": "eget",
  "3422": "likelyĠtoĠ",
  "3423": "relatedĠ",
  "3424": "pet",
  "3425": "reli",
  "3426": ".ĠIf",
  "3427": "s;Ġ",
  "3428": "Associ",
  "3429": "Ġtop",
  "3430": "known",
  "3431": "Dar",
  "3432": "wasĠnotĠ",
  "3433": "firm",
  "3434": "somethingĠ",
  "3435": "best",
  "3436": "decad",
  "3437": "s)Ġ",
  "3438": "enoughĠ",
  "3439": "preh",
  "3440": "yz",
  "3441": "5-",
  "3442": "laun",
  "3443": "JanuaryĠ",
  "3444": "wĠ",
  "3445": "emp",
  "3446": "Ġmon",
  "3447": "1.",
  "3448": "advant",
  "3449": "feed",
  "3450": ".ĠToĠ",
  "3451": "secondĠ",
  "3452": "varietyĠofĠ",
  "3453": "Ġthought",
  "3454": "intellectualĠ",
  "3455": "Austral",
  "3456": "batt",
  "3457": "ersĠinĠ",
  "3458": "imeĠ",
  "3459": "):Ġ",
  "3460": "akingĠ",
  "3461": "institut",
  "3462": "inglyĠ",
  "3463": "timeĠ",
  "3464": "ing.\n",
  "3465": "scientificĠ",
  "3466": "carri",
  "3467": "mission",
  "3468": "e.ĠS",
  "3469": "Serv",
  "3470": "additionalĠ",
  "3471": "specific",
  "3472": "er'sĠ",
  "3473": "Dav",
  "3474": "kin",
  "3475": "ities,Ġ",
  "3476": "death",
  "3477": "connect",
  "3478": "accur",
  "3479": "immed",
  "3480": "mind",
  "3481": "hasĠaĠ",
  "3482": "functionĠ",
  "3483": "mit",
  "3484": "sch",
  "3485": "sampl",
  "3486": "Publ",
  "3487": "bear",
  "3488": "uch",
  "3489": "pastĠ",
  "3490": "sĠisĠ",
  "3491": "esĠorĠ",
  "3492": "2008",
  "3493": "mach",
  "3494": "irt",
  "3495": "developĠ",
  "3496": "ationĠisĠ",
  "3497": "irdĠ",
  "3498": "beĠt",
  "3499": "capt",
  "3500": "enh",
  "3501": "aur",
  "3502": "urv",
  "3503": "areĠnotĠ",
  "3504": "data",
  "3505": "concentr",
  "3506": "Ital",
  "3507": "kindĠ",
  "3508": "objectĠ",
  "3509": "conditionsĠ",
  "3510": "major",
  "3511": "Gl",
  "3512": "sent",
  "3513": "anz",
  "3514": "Act",
  "3515": "vacc",
  "3516": "inson",
  "3517": "directĠ",
  "3518": "ipp",
  "3519": "lyingĠ",
  "3520": "developedĠ",
  "3521": "ariesĠ",
  "3522": "alongĠ",
  "3523": "stream",
  "3524": ".\nT",
  "3525": "potentialĠ",
  "3526": "BritishĠ",
  "3527": "FrenchĠ",
  "3528": "development",
  "3529": ",Ġ\"",
  "3530": "esĠwithĠ",
  "3531": "ermanĠ",
  "3532": ",ĠasĠ",
  "3533": "halfĠ",
  "3534": "stop",
  "3535": "Val",
  "3536": "fire",
  "3537": "DecemberĠ",
  "3538": "rownĠ",
  "3539": "perhap",
  "3540": "attempt",
  "3541": ".ĠK",
  "3542": "similar",
  "3543": "initi",
  "3544": "ainsĠ",
  "3545": "inkĠ",
  "3546": "fuel",
  "3547": "Rev",
  "3548": "healthyĠ",
  "3549": "veget",
  "3550": "coun",
  "3551": "earli",
  "3552": "ate,Ġ",
  "3553": "classĠ",
  "3554": "ingĠthisĠ",
  "3555": "80",
  "3556": "developingĠ",
  "3557": ",ĠP",
  "3558": "doctorĠ",
  "3559": "businessĠ",
  "3560": "agg",
  "3561": "rather",
  "3562": "North",
  "3563": "bach",
  "3564": "Syncop",
  "3565": "lingĠ",
  "3566": "yetĠ",
  "3567": "realĠ",
  "3568": "OS",
  "3569": "scen",
  "3570": "orĠaĠ",
  "3571": "StateĠ",
  "3572": "orb",
  "3573": "2,Ġ",
  "3574": "warm",
  "3575": "camp",
  "3576": "Health",
  "3577": "ecaus",
  "3578": "quick",
  "3579": "most",
  "3580": "adem",
  "3581": "imul",
  "3582": "%Ġ",
  "3583": "methodĠ",
  "3584": "thoughĠ",
  "3585": "Febr",
  "3586": "forceĠ",
  "3587": "different",
  "3588": "offer",
  "3589": "Des",
  "3590": "molecul",
  "3591": "Octob",
  "3592": "21",
  "3593": "JuneĠ",
  "3594": "population",
  "3595": "it’sĠ",
  "3596": "enough",
  "3597": "minim",
  "3598": "notĠonlyĠ",
  "3599": "produceĠ",
  "3600": "probablyĠ",
  "3601": "Colleg",
  "3602": "eĠofĠaĠ",
  "3603": "empor",
  "3604": "ham",
  "3605": "drop",
  "3606": "neur",
  "3607": "eor",
  "3608": "Parkinson",
  "3609": "greaterĠ",
  "3610": "lar",
  "3611": "dang",
  "3612": "ingĠinĠtheĠ",
  "3613": "alĠtoĠ",
  "3614": "allowĠ",
  "3615": "24",
  "3616": "enter",
  "3617": "engine",
  "3618": "sĠatĠ",
  "3619": "Ġtot",
  "3620": "Ger",
  "3621": "visit",
  "3622": "plat",
  "3623": "merĠ",
  "3624": "zon",
  "3625": "assess",
  "3626": "utt",
  "3627": "reflect",
  "3628": "pret",
  "3629": "environmentĠ",
  "3630": "rais",
  "3631": "2.",
  "3632": "usp",
  "3633": "Ġsystem",
  "3634": "YĠ",
  "3635": "micro",
  "3636": "Alexand",
  "3637": "AC",
  "3638": "genĠ",
  "3639": "ĠtimesĠ",
  "3640": "edĠintoĠ",
  "3641": "ilosoph",
  "3642": "particularĠ",
  "3643": "ine,Ġ",
  "3644": "es,ĠtheĠ",
  "3645": "andĠthatĠ",
  "3646": "pollut",
  "3647": "ruc",
  "3648": "ousand",
  "3649": "3-",
  "3650": "itionĠofĠ",
  "3651": "sat",
  "3652": "numbersĠ",
  "3653": "sinc",
  "3654": "gett",
  "3655": "1,",
  "3656": "ingĠonĠ",
  "3657": "strength",
  "3658": "Ġthing",
  "3659": "sĠthatĠareĠ",
  "3660": "mix",
  "3661": "network",
  "3662": "alĠt",
  "3663": "only",
  "3664": "e.ĠA",
  "3665": "yĠisĠ",
  "3666": "standard",
  "3667": "eĠsystem",
  "3668": "JulyĠ",
  "3669": "raĠ",
  "3670": "market",
  "3671": "gard",
  "3672": "villag",
  "3673": "ĠthoseĠwhoĠ",
  "3674": "stepĠ",
  "3675": "respons",
  "3676": "ationĠinĠ",
  "3677": "icatedĠ",
  "3678": "aĠlotĠ",
  "3679": "ions,Ġ",
  "3680": "faceĠ",
  "3681": ".ĠSomeĠ",
  "3682": "unĠ",
  "3683": "look",
  "3684": "2006",
  "3685": "Mary",
  "3686": "•Ġ",
  "3687": "onceĠ",
  "3688": "regionĠ",
  "3689": "abilityĠ",
  "3690": "againstĠtheĠ",
  "3691": "etĠal",
  "3692": "28",
  "3693": "basedĠonĠ",
  "3694": "Ġminut",
  "3695": "wouldĠhaveĠ",
  "3696": "mount",
  "3697": "abb",
  "3698": "quart",
  "3699": "went",
  "3700": "growthĠ",
  "3701": "Ġthe\n",
  "3702": "sect",
  "3703": "NewĠYorkĠ",
  "3704": "fear",
  "3705": "edĠwithĠtheĠ",
  "3706": "llĠ",
  "3707": "makesĠ",
  "3708": "dĠtoĠ",
  "3709": "digitalĠ",
  "3710": "pressur",
  "3711": "Ġtime,Ġ",
  "3712": "Fir",
  "3713": "ĠtreatmentĠ",
  "3714": "diseaseĠ",
  "3715": "set",
  "3716": "strongĠ",
  "3717": "Cour",
  "3718": "assist",
  "3719": "futureĠ",
  "3720": "nearlyĠ",
  "3721": "y.ĠTheĠ",
  "3722": "Scienc",
  "3723": "four",
  "3724": "s'Ġ",
  "3725": "ĠthanĠtheĠ",
  "3726": "natur",
  "3727": "atom",
  "3728": "entireĠ",
  "3729": "animalsĠ",
  "3730": "inf",
  "3731": "birthĠ",
  "3732": "lateĠ",
  "3733": "libr",
  "3734": "sĠonĠtheĠ",
  "3735": "Rec",
  "3736": "atmospher",
  "3737": "productionĠ",
  "3738": "AprilĠ",
  "3739": "sen",
  "3740": "pric",
  "3741": "wr",
  "3742": "38",
  "3743": "Flor",
  "3744": "ensur",
  "3745": "pleas",
  "3746": "better",
  "3747": "review",
  "3748": "mut",
  "3749": "imĠ",
  "3750": "onicĠ",
  "3751": "vest",
  "3752": "Asi",
  "3753": "don’tĠ",
  "3754": "Li",
  "3755": "-ter",
  "3756": "convers",
  "3757": "ever,ĠtheĠ",
  "3758": "shortĠ",
  "3759": "ence,Ġ",
  "3760": "weĠhaveĠ",
  "3761": "CenterĠ",
  "3762": "standardĠ",
  "3763": "ing,ĠandĠ",
  "3764": "chemicalĠ",
  "3765": "weĠareĠ",
  "3766": "handĠ",
  "3767": "9,Ġ",
  "3768": "diet",
  "3769": "potent",
  "3770": "decid",
  "3771": "HealthĠ",
  "3772": "patient",
  "3773": "industri",
  "3774": ".ĠThereĠ",
  "3775": "cordingĠtoĠ",
  "3776": "hos",
  "3777": "4.",
  "3778": "ons",
  "3779": "edĠasĠaĠ",
  "3780": "manufact",
  "3781": "knownĠasĠ",
  "3782": "acyĠ",
  "3783": "blood",
  "3784": "ing\n",
  "3785": "11Ġ",
  "3786": "vert",
  "3787": "Ġtheir",
  "3788": "Eg",
  "3789": "omet",
  "3790": "Mo",
  "3791": "milkĠ",
  "3792": "DNAĠ",
  "3793": "lyĠtheĠ",
  "3794": "intens",
  "3795": "buildĠ",
  "3796": ",\"Ġs",
  "3797": "cos",
  "3798": "responsibleĠ",
  "3799": "urg",
  "3800": "grav",
  "3801": "fallĠ",
  "3802": "evalu",
  "3803": "ingĠfromĠ",
  "3804": "Ant",
  "3805": "circ",
  "3806": ".”Ġ",
  "3807": ",ĠitĠ",
  "3808": "edĠt",
  "3809": "ationsĠandĠ",
  "3810": ".\nN",
  "3811": "shop",
  "3812": "37",
  "3813": "Wol",
  "3814": "esh",
  "3815": "computerĠ",
  "3816": "ĠorĠ",
  "3817": "lookingĠ",
  "3818": "System",
  "3819": "2007",
  "3820": "scal",
  "3821": "kind",
  "3822": "2-",
  "3823": "ationĠtoĠ",
  "3824": "emat",
  "3825": "uponĠ",
  "3826": "until",
  "3827": "committ",
  "3828": "sayĠ",
  "3829": "communitiesĠ",
  "3830": "ĠthroughoutĠtheĠ",
  "3831": "Prov",
  "3832": "proced",
  "3833": "OtherĠ",
  "3834": "All",
  "3835": "186",
  "3836": "consideredĠ",
  "3837": "goingĠtoĠ",
  "3838": "degre",
  "3839": "aĠser",
  "3840": "arianĠ",
  "3841": "100Ġ",
  "3842": "ation\n",
  "3843": "gn",
  "3844": "entĠofĠ",
  "3845": "Phil",
  "3846": "cameĠ",
  "3847": "ricĠ",
  "3848": "Ġcan",
  "3849": "negot",
  "3850": "someĠofĠtheĠ",
  "3851": "gram",
  "3852": "ors,Ġ",
  "3853": "s)",
  "3854": "reduceĠ",
  "3855": "ster",
  "3856": "ency",
  "3857": "KingĠ",
  "3858": "legis",
  "3859": "Rel",
  "3860": "pan",
  "3861": "solv",
  "3862": "last",
  "3863": "ru",
  "3864": "edĠbyĠaĠ",
  "3865": "construc",
  "3866": "yĠ(",
  "3867": "wav",
  "3868": "At",
  "3869": "storyĠ",
  "3870": "ertĠ",
  "3871": "induc",
  "3872": "inesĠ",
  "3873": "cityĠ",
  "3874": "ju",
  "3875": "DNA",
  "3876": "particularlyĠ",
  "3877": "bornĠ",
  "3878": "flo",
  "3879": "Ġtoday",
  "3880": "understandĠ",
  "3881": "directlyĠ",
  "3882": "orderĠ",
  "3883": "Ġthere",
  "3884": "Ġmem",
  "3885": "inaryĠ",
  "3886": "!\n",
  "3887": "aft",
  "3888": "eĠthemĠ",
  "3889": "errit",
  "3890": "evidenceĠ",
  "3891": "ecut",
  "3892": "contactĠ",
  "3893": "area",
  "3894": "iliz",
  "3895": ",ĠR",
  "3896": "Ġtreatment",
  "3897": "ceĠ",
  "3898": ",ĠthenĠ",
  "3899": "isĠofĠ",
  "3900": "onĠthisĠ",
  "3901": "educationĠ",
  "3902": "BC",
  "3903": "electricĠ",
  "3904": "electric",
  "3905": "eptemberĠ",
  "3906": "yearsĠag",
  "3907": "ĠtakenĠ",
  "3908": "nov",
  "3909": "le,Ġ",
  "3910": "insteadĠ",
  "3911": "ĠthemĠtoĠ",
  "3912": "pen",
  "3913": "sometimesĠ",
  "3914": "restr",
  "3915": "virt",
  "3916": "aĠC",
  "3917": "existingĠ",
  "3918": "orĠofĠtheĠ",
  "3919": "s.ĠB",
  "3920": "acrossĠtheĠ",
  "3921": "effectiv",
  "3922": "Willi",
  "3923": "explor",
  "3924": "MuslimĠ",
  "3925": ".ĠThisĠisĠ",
  "3926": "regular",
  "3927": "GermanĠ",
  "3928": "aticĠ",
  "3929": "body",
  "3930": "super",
  "3931": "Environ",
  "3932": "geneticĠ",
  "3933": "disput",
  "3934": "ureĠtoĠ",
  "3935": "planet",
  "3936": "marketĠ",
  "3937": "IDĠ",
  "3938": "mid",
  "3939": "colon",
  "3940": "houseĠ",
  "3941": "alkĠ",
  "3942": "Ġthink",
  "3943": "growingĠ",
  "3944": "ĠthingsĠ",
  "3945": "ier",
  "3946": "ofĠtheĠt",
  "3947": "showĠ",
  "3948": "largestĠ",
  "3949": ":ĠTheĠ",
  "3950": "aintĠ",
  "3951": "?\n-Ġ",
  "3952": "usedĠinĠ",
  "3953": "beforeĠtheĠ",
  "3954": "’reĠ",
  "3955": "metĠ",
  "3956": "Under",
  "3957": "edĠorĠ",
  "3958": "akenĠ",
  "3959": "maxim",
  "3960": "Energ",
  "3961": "D,Ġ",
  "3962": "beganĠ",
  "3963": "Met",
  "3964": "house",
  "3965": "zer",
  "3966": "AM",
  "3967": "190",
  "3968": "familiesĠ",
  "3969": "createdĠ",
  "3970": "pil",
  "3971": "Slov",
  "3972": "meansĠ",
  "3973": "soonĠ",
  "3974": "sĠofĠaĠ",
  "3975": "wood",
  "3976": "yrightĠ",
  "3977": "left",
  "3978": "howĠm",
  "3979": "years,Ġ",
  "3980": "encesĠ",
  "3981": "WithĠ",
  "3982": "esĠtoĠtheĠ",
  "3983": "eum",
  "3984": "”Ġs",
  "3985": ".ĠY",
  "3986": "document",
  "3987": "itingĠ",
  "3988": "resultĠ",
  "3989": "community",
  "3990": "chron",
  "3991": "occup",
  "3992": "studentĠ",
  "3993": "sĠandĠtheĠ",
  "3994": "confl",
  "3995": "South",
  "3996": "road",
  "3997": "mel",
  "3998": "resid",
  "3999": "here",
  "4000": "unn",
  "4001": "anĠun",
  "4002": "warĠ",
  "4003": "suffic",
  "4004": "anceĠtoĠ",
  "4005": ".\nThisĠ",
  "4006": "ely,Ġ",
  "4007": "Dat",
  "4008": "edĠthisĠ",
  "4009": "commercialĠ",
  "4010": "ildĠ",
  "4011": "belong",
  "4012": "PresidentĠ",
  "4013": "stag",
  "4014": ".D",
  "4015": "demonstr",
  "4016": "block",
  "4017": "slow",
  "4018": "domin",
  "4019": "althoughĠ",
  "4020": "Ġcount",
  "4021": "fortun",
  "4022": "Commun",
  "4023": "strug",
  "4024": "startĠ",
  "4025": "ed,ĠtheĠ",
  "4026": "ĠtrainingĠ",
  "4027": "injur",
  "4028": "encour",
  "4029": "ignific",
  "4030": "peopleĠwhoĠ",
  "4031": "scientistsĠ",
  "4032": "Ġthre",
  "4033": "sixĠ",
  "4034": "cool",
  "4035": "Oc",
  "4036": "animalĠ",
  "4037": "gal",
  "4038": "speedĠ",
  "4039": "Egyp",
  "4040": "court",
  "4041": "propertyĠ",
  "4042": "urch",
  "4043": "mom",
  "4044": "well-",
  "4045": "mess",
  "4046": "forĠtheirĠ",
  "4047": "positiveĠ",
  "4048": "erĠisĠ",
  "4049": "MarchĠ",
  "4050": "caseĠ",
  "4051": "leaseĠ",
  "4052": "benefit",
  "4053": "memberĠ",
  "4054": "-basedĠ",
  "4055": "into",
  "4056": "structureĠ",
  "4057": "45",
  "4058": "instr",
  "4059": "y\n",
  "4060": "writtenĠ",
  "4061": "Jam",
  "4062": "extend",
  "4063": "ferenceĠ",
  "4064": "youthĠ",
  "4065": "stanc",
  "4066": "Ġtool",
  "4067": "bey",
  "4068": ".\nAĠ",
  "4069": "OneĠ",
  "4070": "bigĠ",
  "4071": "aĠofĠ",
  "4072": "UR",
  "4073": "lessĠthanĠ",
  "4074": "detect",
  "4075": "Valenc",
  "4076": "gravel",
  "4077": "leep",
  "4078": "address",
  "4079": "distinc",
  "4080": "pack",
  "4081": "highlyĠ",
  "4082": "convent",
  "4083": "hairĠ",
  "4084": "Int",
  "4085": "ĠtoĠtheirĠ",
  "4086": "languag",
  "4087": "affic",
  "4088": "clearĠ",
  "4089": "grant",
  "4090": "qualityĠ",
  "4091": "percentĠofĠ",
  "4092": "Educ",
  "4093": "parent",
  "4094": "risk",
  "4095": "ationĠ(",
  "4096": "2011",
  "4097": "cros",
  "4098": "15Ġ",
  "4099": "beginningĠ",
  "4100": "ih",
  "4101": "effectsĠofĠ",
  "4102": "che",
  "4103": "edĠfromĠtheĠ",
  "4104": ".ĠSt",
  "4105": "plantsĠ",
  "4106": ",\n-Ġ",
  "4107": "slav",
  "4108": "YouĠcanĠ",
  "4109": "iateĠ",
  "4110": "productĠ",
  "4111": "multipleĠ",
  "4112": "runĠ",
  "4113": "inĠanĠ",
  "4114": "whether",
  "4115": "Research",
  "4116": "clean",
  "4117": "ability",
  "4118": "eĠwithĠ",
  "4119": "Le",
  "4120": "36",
  "4121": "amongĠtheĠ",
  "4122": "usingĠtheĠ",
  "4123": "restor",
  "4124": "ierĠ",
  "4125": "Control",
  "4126": "locatedĠ",
  "4127": "wall",
  "4128": "engthĠ",
  "4129": "Ġtherap",
  "4130": "financialĠ",
  "4131": "s,ĠorĠ",
  "4132": "Reg",
  "4133": "Sec",
  "4134": "celebr",
  "4135": "aminĠ",
  "4136": "OurĠ",
  "4137": "recordĠ",
  "4138": "card",
  "4139": "learĠ",
  "4140": "regist",
  "4141": "ItĠisĠ",
  "4142": "AnĠ",
  "4143": "nav",
  "4144": "capit",
  "4145": "cannotĠ",
  "4146": "gar",
  "4147": "umentĠ",
  "4148": "wordsĠ",
  "4149": "experienceĠ",
  "4150": "currentlyĠ",
  "4151": "De",
  "4152": "approxim",
  "4153": "Ġmil",
  "4154": "outsid",
  "4155": "imageĠ",
  "4156": ".org",
  "4157": "progress",
  "4158": ",ĠC",
  "4159": "likelyĠ",
  "4160": "Ref",
  "4161": "second",
  "4162": "90",
  "4163": "10.",
  "4164": "accordingĠtoĠ",
  "4165": "six",
  "4166": "apterĠ",
  "4167": "kindĠofĠ",
  "4168": "endĠofĠtheĠ",
  "4169": "formĠofĠ",
  "4170": "interestĠ",
  "4171": "broughtĠ",
  "4172": "bol",
  "4173": "forest",
  "4174": "she",
  "4175": "NovemberĠ",
  "4176": "organism",
  "4177": "SanĠ",
  "4178": "pregn",
  "4179": "inactiv",
  "4180": "anzan",
  "4181": "motorĠ",
  "4182": "quiteĠ",
  "4183": "victim",
  "4184": "FebruaryĠ",
  "4185": "roomĠ",
  "4186": "MostĠ",
  "4187": "differenceĠ",
  "4188": "closeĠ",
  "4189": "completelyĠ",
  "4190": "edĠhisĠ",
  "4191": ",ĠweĠ",
  "4192": "Ob",
  "4193": "ĠtradeĠ",
  "4194": "cancer",
  "4195": "wel",
  "4196": "Develop",
  "4197": "fem",
  "4198": "70",
  "4199": "ailyĠ",
  "4200": "suchĠasĠtheĠ",
  "4201": "monitor",
  "4202": "Ġthreat",
  "4203": "MO",
  "4204": "Prot",
  "4205": "emperatureĠ",
  "4206": "ifeĠ",
  "4207": "westĠ",
  "4208": "2009",
  "4209": "oxideĠ",
  "4210": "actionsĠ",
  "4211": "withĠtheirĠ",
  "4212": "member",
  "4213": "questionsĠ",
  "4214": "Bo",
  "4215": "beh",
  "4216": "screen",
  "4217": "cient",
  "4218": "ĠtypesĠofĠ",
  "4219": "itself",
  "4220": "itĠtoĠ",
  "4221": "zĠ",
  "4222": "AsĠ",
  "4223": "ionĠtoĠ",
  "4224": "ouncil",
  "4225": "developmentĠofĠ",
  "4226": "DepartmentĠofĠ",
  "4227": "howĠtheĠ",
  "4228": "mob",
  "4229": "young",
  "4230": "appropri",
  "4231": "recentlyĠ",
  "4232": "chos",
  "4233": "containsĠ",
  "4234": "history",
  "4235": "problemĠ",
  "4236": "ĠtogetherĠ",
  "4237": "contentĠ",
  "4238": "section",
  "4239": "Republ",
  "4240": "Mod",
  "4241": "westernĠ",
  "4242": "insid",
  "4243": "processingĠ",
  "4244": "business",
  "4245": "ainĠtheĠ",
  "4246": "expert",
  "4247": "Fig",
  "4248": "Ros",
  "4249": "patch",
  "4250": "policeĠ",
  "4251": "healthĠc",
  "4252": "settl",
  "4253": "een",
  "4254": "Jav",
  "4255": "___",
  "4256": "youĠm",
  "4257": "onĠtheirĠ",
  "4258": "neu",
  "4259": "lostĠ",
  "4260": "HIV",
  "4261": "aĠlargeĠ",
  "4262": "annualĠ",
  "4263": ".\nC",
  "4264": "Ġthos",
  "4265": "between",
  "4266": "Ap",
  "4267": "easilyĠ",
  "4268": "iaĠandĠ",
  "4269": "uringĠtheĠ",
  "4270": "anti-",
  "4271": "increaseĠ",
  "4272": "areĠth",
  "4273": "OctoberĠ",
  "4274": "custom",
  "4275": "minut",
  "4276": "becauseĠofĠ",
  "4277": "courtĠ",
  "4278": "whichĠareĠ",
  "4279": "privateĠ",
  "4280": "inĠhisĠ",
  "4281": "oxĠ",
  "4282": "highestĠ",
  "4283": "MedicalĠ",
  "4284": "ingĠorĠ",
  "4285": "ewor",
  "4286": "sil",
  "4287": "romĠ",
  "4288": "13Ġ",
  "4289": "earn",
  "4290": ".\nP",
  "4291": "Florid",
  "4292": "demonstrat",
  "4293": "Up",
  "4294": "soĠthatĠ",
  "4295": "ictĠ",
  "4296": "a'sĠ",
  "4297": "GeneralĠ",
  "4298": "phen",
  "4299": "omen",
  "4300": "eventsĠ",
  "4301": "heat",
  "4302": "defect",
  "4303": "ston",
  "4304": "n,Ġ",
  "4305": "iesĠtoĠ",
  "4306": "letĠ",
  "4307": "hur",
  "4308": "y,ĠtheĠ",
  "4309": "focusĠ",
  "4310": "accessĠtoĠ",
  "4311": "asĠtheyĠ",
  "4312": "aĠnewĠ",
  "4313": "formationĠ",
  "4314": "e)",
  "4315": "Ġtrain",
  "4316": "echĠ",
  "4317": "Proc",
  "4318": "ereforeĠ",
  "4319": "12Ġ",
  "4320": "illeg",
  "4321": "religiousĠ",
  "4322": "enzym",
  "4323": "scop",
  "4324": "8-",
  "4325": "paint",
  "4326": "order",
  "4327": "equip",
  "4328": "ailĠ",
  "4329": "GĠ",
  "4330": ".ĠV",
  "4331": "significantĠ",
  "4332": "olderĠ",
  "4333": "ualsĠ",
  "4334": "simplyĠ",
  "4335": "iddleĠ",
  "4336": "NĠ",
  "4337": "poorĠ",
  "4338": "AugustĠ",
  "4339": ",ĠH",
  "4340": "Gen",
  "4341": "a,ĠandĠ",
  "4342": "Tanzan",
  "4343": "Ma",
  "4344": "[*",
  "4345": "pulle",
  "4346": "emissiv",
  "4347": "abol",
  "4348": "hus",
  "4349": "ĠthemselvesĠ",
  "4350": "videoĠ",
  "4351": "infr",
  "4352": "iew",
  "4353": "forĠexample,Ġ",
  "4354": ".ĠHisĠ",
  "4355": "JournalĠ",
  "4356": "atedĠtheĠ",
  "4357": "ousandsĠofĠ",
  "4358": "Riv",
  "4359": "yr",
  "4360": "omb",
  "4361": "languageĠ",
  "4362": "sĠbyĠ",
  "4363": "his",
  "4364": "illustr",
  "4365": "negoti",
  "4366": "fter",
  "4367": "andĠtheyĠ",
  "4368": "rangeĠofĠ",
  "4369": "feetĠ",
  "4370": "wa",
  "4371": "ST",
  "4372": "ĠtoĠhaveĠ",
  "4373": "IC",
  "4374": "AP",
  "4375": "alsoĠbeĠ",
  "4376": "inĠwhichĠ",
  "4377": "host",
  "4378": "also",
  "4379": "bab",
  "4380": "istĠofĠ",
  "4381": "Peopl",
  "4382": "inĠandĠ",
  "4383": "exic",
  "4384": "fossilĠ",
  "4385": "buildingĠ",
  "4386": "historyĠ",
  "4387": "Vict",
  "4388": "3,Ġ",
  "4389": "prison",
  "4390": "MudejarĠ",
  "4391": "Wolbach",
  "4392": "impactĠ",
  "4393": "sĠhaveĠ",
  "4394": "purch",
  "4395": "mechanism",
  "4396": "onlineĠ",
  "4397": "hunt",
  "4398": "volunt",
  "4399": "es:Ġ",
  "4400": "compreh",
  "4401": "ofĠthoseĠ",
  "4402": "in-",
  "4403": "edĠoutĠ",
  "4404": "inĠorderĠtoĠ",
  "4405": "surfaceĠ",
  "4406": "\"\n",
  "4407": "adult",
  "4408": "7-",
  "4409": "agu",
  "4410": "inhib",
  "4411": "ors",
  "4412": "CP",
  "4413": "weight",
  "4414": "AD",
  "4415": "rateĠ",
  "4416": "reachĠ",
  "4417": "egg",
  "4418": "promis",
  "4419": "sport",
  "4420": "e.ĠTh",
  "4421": "foundĠinĠ",
  "4422": "Ke",
  "4423": "repe",
  "4424": "suffer",
  "4425": "knowledgeĠ",
  "4426": "\"TheĠ",
  "4427": "reserv",
  "4428": "CivilĠ",
  "4429": "domest",
  "4430": "surround",
  "4431": "igĠ",
  "4432": "eriesĠ",
  "4433": "uls",
  "4434": "...",
  "4435": "policyĠ",
  "4436": "peopleĠwithĠ",
  "4437": "audioĠ",
  "4438": "adapt",
  "4439": "oughĠtheĠ",
  "4440": "foreignĠ",
  "4441": "ferĠ",
  "4442": "allowsĠ",
  "4443": "replac",
  "4444": "owerĠ",
  "4445": "seeĠtheĠ",
  "4446": "40Ġ",
  "4447": "levelĠ",
  "4448": "DavidĠ",
  "4449": "asĠitĠ",
  "4450": "concept",
  "4451": "Mill",
  "4452": "deb",
  "4453": "Def",
  "4454": "Ber",
  "4455": "gameĠ",
  "4456": "ersĠwereĠ",
  "4457": "noth",
  "4458": "Fl",
  "4459": "essentialĠ",
  "4460": "pip",
  "4461": "Tex",
  "4462": "onĠandĠ",
  "4463": "itselfĠ",
  "4464": "angĠ",
  "4465": "195",
  "4466": "map",
  "4467": "eneĠ",
  "4468": "hydr",
  "4469": "asm",
  "4470": "kidneyĠ",
  "4471": ".ĠBut",
  "4472": "HowĠ",
  "4473": "agr",
  "4474": "costĠ",
  "4475": "isĠalsoĠ",
  "4476": "ackĠofĠ",
  "4477": "special",
  "4478": "clas",
  "4479": "e,Ġth",
  "4480": "rowĠ",
  "4481": "oriesĠ",
  "4482": "approximatelyĠ",
  "4483": "onom",
  "4484": "predict",
  "4485": "son,Ġ",
  "4486": "conv",
  "4487": "impact",
  "4488": "ificationĠ",
  "4489": "e.g",
  "4490": "speak",
  "4491": "immediat",
  "4492": ",ĠwithĠ",
  "4493": "uf",
  "4494": "s.ĠTheyĠ",
  "4495": "ocrat",
  "4496": "Israel",
  "4497": "ermineĠ",
  "4498": "arriv",
  "4499": "EarthĠ",
  "4500": "ha",
  "4501": "ed\n",
  "4502": "hardĠ",
  "4503": "engag",
  "4504": "northernĠ",
  "4505": "biologicalĠ",
  "4506": "byĠaĠ",
  "4507": "biolog",
  "4508": "edĠby",
  "4509": "'veĠ",
  "4510": "casesĠ",
  "4511": "ofĠthatĠ",
  "4512": "sĠcanĠ",
  "4513": "setĠofĠ",
  "4514": "issuesĠ",
  "4515": "makeĠs",
  "4516": "aboveĠ",
  "4517": "previousĠ",
  "4518": "iorĠ",
  "4519": "ĠtemperatureĠ",
  "4520": "oppos",
  "4521": "4-",
  "4522": "Tim",
  "4523": "196",
  "4524": "culturalĠ",
  "4525": "formerĠ",
  "4526": "infl",
  "4527": "finalĠ",
  "4528": "oud",
  "4529": "CharlesĠ",
  "4530": "practiceĠ",
  "4531": "women",
  "4532": "diagnos",
  "4533": "als,Ġ",
  "4534": "s,Ġth",
  "4535": "fram",
  "4536": "recogniz",
  "4537": "ess,Ġ",
  "4538": "activities",
  "4539": "ark",
  "4540": "Phys",
  "4541": "perman",
  "4542": "oneĠofĠ",
  "4543": "a\n",
  "4544": "few",
  "4545": "inĠL",
  "4546": "mal",
  "4547": "ban",
  "4548": "where",
  "4549": "should",
  "4550": "habitatĠ",
  "4551": "green",
  "4552": "ocol",
  "4553": "boneĠ",
  "4554": "likeĠtheĠ",
  "4555": "ancerĠ",
  "4556": "goingĠ",
  "4557": "itĠofĠ",
  "4558": "psych",
  "4559": "shown",
  "4560": "softwareĠ",
  "4561": "volum",
  "4562": "account",
  "4563": "ĠtypeĠofĠ",
  "4564": "eption",
  "4565": "antlyĠ",
  "4566": "'s",
  "4567": ":ĠtheĠ",
  "4568": "remainĠ",
  "4569": "efĠ",
  "4570": "Count",
  "4571": "econd",
  "4572": "prohib",
  "4573": "husb",
  "4574": "Ġtend",
  "4575": "feelĠ",
  "4576": "elin",
  "4577": "othĠ",
  "4578": "es.\nTheĠ",
  "4579": "another",
  "4580": "evereĠ",
  "4581": "occurĠ",
  "4582": "resultsĠ",
  "4583": "wentĠ",
  "4584": "see",
  "4585": "bond",
  "4586": "reatedĠ",
  "4587": "If",
  "4588": "nearĠ",
  "4589": "e)Ġ",
  "4590": "2005",
  "4591": "federalĠ",
  "4592": "ĠtakesĠ",
  "4593": "ratherĠthanĠ",
  "4594": "shownĠ",
  "4595": "overt",
  "4596": "whit",
  "4597": ".ĠPM",
  "4598": "suit",
  "4599": "study",
  "4600": "wiseĠ",
  "4601": "asĠwell",
  "4602": "ManyĠ",
  "4603": "foot",
  "4604": "Prof",
  "4605": "oul",
  "4606": "inyĠ",
  "4607": "ooksĠ",
  "4608": "Arch",
  "4609": "NASA",
  "4610": "given",
  "4611": "heim",
  "4612": "quant",
  "4613": "inkingĠ",
  "4614": "ings,Ġ",
  "4615": "fatĠ",
  "4616": "itl",
  "4617": "fres",
  "4618": "JewsĠ",
  "4619": "ellingĠ",
  "4620": "oceanĠ",
  "4621": "alongĠtheĠ",
  "4622": "Ġtravel",
  "4623": "callĠ",
  "4624": "aĠsmallĠ",
  "4625": "nerĠ",
  "4626": "Cap",
  "4627": "billionĠ",
  "4628": "ry,Ġ",
  "4629": "sequenc",
  "4630": "ary,Ġ",
  "4631": "AllĠ",
  "4632": "6,Ġ",
  "4633": "parentsĠ",
  "4634": "irl",
  "4635": "perspect",
  "4636": "yĠthatĠ",
  "4637": "shareĠ",
  "4638": "Ġmod",
  "4639": "bri",
  "4640": "youĠhaveĠ",
  "4641": "econdĠ",
  "4642": "i.",
  "4643": "possess",
  "4644": "6-",
  "4645": "Childr",
  "4646": "SAĠ",
  "4647": "rain",
  "4648": "perfect",
  "4649": "climateĠchang",
  "4650": ".ĠInĠaddition",
  "4651": "2000",
  "4652": "aren",
  "4653": "requiredĠ",
  "4654": "atingĠtheĠ",
  "4655": "dailyĠ",
  "4656": "rand",
  "4657": "continueĠtoĠ",
  "4658": "receivedĠ",
  "4659": "susp",
  "4660": "mass",
  "4661": "consc",
  "4662": "bound",
  "4663": "amount",
  "4664": "udd",
  "4665": "capac",
  "4666": "join",
  "4667": "weap",
  "4668": "crim",
  "4669": "eightĠ",
  "4670": "daysĠ",
  "4671": "lav",
  "4672": "Tor",
  "4673": "ofĠthemĠ",
  "4674": "a’sĠ",
  "4675": "oĠandĠ",
  "4676": "dead",
  "4677": "AL",
  "4678": ".C",
  "4679": "pal",
  "4680": "began",
  "4681": "archit",
  "4682": "breat",
  "4683": "HĠ",
  "4684": "Charl",
  "4685": "RO",
  "4686": "personalĠ",
  "4687": "perhapsĠ",
  "4688": "on-",
  "4689": "officialĠ",
  "4690": "Po",
  "4691": "e,ĠwhichĠ",
  "4692": "ation.\n",
  "4693": "owsĠ",
  "4694": ".ĠAfterĠ",
  "4695": "yingĠtoĠ",
  "4696": "production",
  "4697": "basedĠonĠtheĠ",
  "4698": "completeĠ",
  "4699": "Tri",
  "4700": "umentsĠ",
  "4701": "ereĠisĠnoĠ",
  "4702": "iesĠthatĠ",
  "4703": ",ĠwhoĠ",
  "4704": "ingĠthemĠ",
  "4705": "ationĠforĠ",
  "4706": "insul",
  "4707": "whatĠisĠ",
  "4708": "cov",
  "4709": "aĠS",
  "4710": "obvi",
  "4711": "43",
  "4712": "HG",
  "4713": "bridg",
  "4714": "ingu",
  "4715": "ĠtraditionalĠ",
  "4716": "2010",
  "4717": "andid",
  "4718": "pray",
  "4719": "icip",
  "4720": "asterĠ",
  "4721": "ball",
  "4722": "Law",
  "4723": "Sch",
  "4724": "would",
  "4725": "birth",
  "4726": "musicĠ",
  "4727": "hug",
  "4728": "itleĠ",
  "4729": "HumanĠ",
  "4730": "vaccin",
  "4731": "atureĠ",
  "4732": "ĠtakingĠ",
  "4733": ",ĠN",
  "4734": "eut",
  "4735": "Pat",
  "4736": "alityĠ",
  "4737": "%ĠofĠ",
  "4738": "olion",
  "4739": "gin",
  "4740": "zz",
  "4741": "math",
  "4742": "usĠtoĠ",
  "4743": "charact",
  "4744": "centralĠ",
  "4745": "growth",
  "4746": "liqu",
  "4747": "moreĠs",
  "4748": "requiresĠ",
  "4749": "Found",
  "4750": "e.ĠThisĠ",
  "4751": "esisĠ",
  "4752": "doingĠ",
  "4753": "embr",
  "4754": "pageĠ",
  "4755": "Sol",
  "4756": "becauseĠtheyĠ",
  "4757": "comingĠ",
  "4758": "StudentsĠ",
  "4759": "adopt",
  "4760": "argu",
  "4761": "rig",
  "4762": "opin",
  "4763": "movementĠ",
  "4764": "whileĠtheĠ",
  "4765": "Japan",
  "4766": "numerousĠ",
  "4767": "WestĠ",
  "4768": "planĠ",
  "4769": "-to-",
  "4770": "het",
  "4771": "away",
  "4772": "intend",
  "4773": "hot",
  "4774": "olin",
  "4775": "dens",
  "4776": "IslamicĠ",
  "4777": "producedĠ",
  "4778": "Elect",
  "4779": "mostĠimportantĠ",
  "4780": "ations.Ġ",
  "4781": "norĠ",
  "4782": "aminoĠ",
  "4783": ").Ġ\"",
  "4784": "Slovak",
  "4785": "approv",
  "4786": "certain",
  "4787": "writingĠ",
  "4788": "ideasĠ",
  "4789": "to",
  "4790": "Scient",
  "4791": "Ġtrack",
  "4792": "searchĠ",
  "4793": "redĠtoĠ",
  "4794": "2003",
  "4795": "Ġcar",
  "4796": "includesĠ",
  "4797": "Offic",
  "4798": "WhileĠ",
  "4799": "attach",
  "4800": "forĠthisĠ",
  "4801": "lot",
  "4802": "IIĠ",
  "4803": "astr",
  "4804": "countriesĠ",
  "4805": "becauseĠtheĠ",
  "4806": "25Ġ",
  "4807": "rimin",
  "4808": "Rob",
  "4809": "IĠhaveĠ",
  "4810": "been",
  "4811": "includingĠtheĠ",
  "4812": "consump",
  "4813": "umin",
  "4814": "ĠtheyĠwereĠ",
  "4815": "2002",
  "4816": "sn",
  "4817": "item",
  "4818": "smo",
  "4819": "fix",
  "4820": "doctor",
  "4821": "yĠt",
  "4822": "colorĠ",
  "4823": "Ġcas",
  "4824": "chief",
  "4825": "io",
  "4826": "declin",
  "4827": "activity",
  "4828": "acob",
  "4829": "re-",
  "4830": "edit",
  "4831": "voc",
  "4832": "Bar",
  "4833": "mediaĠ",
  "4834": "longerĠ",
  "4835": "ogĠ",
  "4836": ".ĠAtĠ",
  "4837": "determineĠ",
  "4838": "civ",
  "4839": "listen",
  "4840": "depress",
  "4841": "),ĠandĠ",
  "4842": "moveĠ",
  "4843": "Parkinson'sĠ",
  "4844": "breas",
  "4845": "networkĠ",
  "4846": "cast",
  "4847": "ore",
  "4848": "day,Ġ",
  "4849": "imentĠ",
  "4850": "emphas",
  "4851": "inĠthatĠ",
  "4852": "ByĠ",
  "4853": "DoĠ",
  "4854": "offerĠ",
  "4855": "requireĠ",
  "4856": "exter",
  "4857": "ers.\n",
  "4858": "ĠtechnologyĠ",
  "4859": "membr",
  "4860": "ScienceĠ",
  "4861": "pump",
  "4862": "Wat",
  "4863": "movement",
  "4864": "performanceĠ",
  "4865": "neigh",
  "4866": "natureĠ",
  "4867": "9-",
  "4868": "launch",
  "4869": "leadĠtoĠ",
  "4870": "isionĠ",
  "4871": "causedĠbyĠ",
  "4872": "JamesĠ",
  "4873": "daugh",
  "4874": "interpret",
  "4875": "complexĠ",
  "4876": "helpsĠ",
  "4877": "erĠtheĠ",
  "4878": "fruitĠ",
  "4879": "ĠtoĠtakeĠ",
  "4880": "whomĠ",
  "4881": "individualsĠ",
  "4882": "atur",
  "4883": "associatedĠwithĠ",
  "4884": "lyĠandĠ",
  "4885": "assum",
  "4886": "ionsĠofĠtheĠ",
  "4887": "sameĠtim",
  "4888": "wis",
  "4889": "ent,Ġ",
  "4890": "cris",
  "4891": "piteĠ",
  "4892": "proph",
  "4893": "iful",
  "4894": "Mexic",
  "4895": "ocean",
  "4896": "aĠsur",
  "4897": "SeptemberĠ",
  "4898": "expand",
  "4899": "writeĠ",
  "4900": "protectionĠ",
  "4901": "illionsĠofĠ",
  "4902": "prefer",
  "4903": "reveal",
  "4904": "formedĠ",
  "4905": "alleg",
  "4906": "easternĠ",
  "4907": "Ken",
  "4908": "Europ",
  "4909": "arrest",
  "4910": "RussianĠ",
  "4911": "Kh",
  "4912": "recept",
  "4913": "gluc",
  "4914": "ious",
  "4915": "itch",
  "4916": "drugĠ",
  "4917": "common",
  "4918": "matterĠ",
  "4919": "popularĠ",
  "4920": "designedĠtoĠ",
  "4921": "urs",
  "4922": "number",
  "4923": "Bu",
  "4924": "oticĠ",
  "4925": "causesĠ",
  "4926": "Alz",
  "4927": "Alzheim",
  "4928": ".ĠWhatĠ",
  "4929": "asĠtoĠ",
  "4930": "scri",
  "4931": "gaveĠ",
  "4932": "among",
  "4933": "broad",
  "4934": "MD",
  "4935": "Ġmonth",
  "4936": "osystem",
  "4937": "fi",
  "4938": "Go",
  "4939": "orĠt",
  "4940": "individual",
  "4941": "ignificantĠ",
  "4942": "Cam",
  "4943": "ActĠ",
  "4944": "24Ġ",
  "4945": "dateĠ",
  "4946": "controll",
  "4947": "itĠtheĠ",
  "4948": "stimul",
  "4949": "calcul",
  "4950": "peac",
  "4951": "wrot",
  "4952": "emporaryĠ",
  "4953": "Conserv",
  "4954": "fair",
  "4955": "d-",
  "4956": "Gal",
  "4957": "hadĠaĠ",
  "4958": "stayĠ",
  "4959": "emissionsĠ",
  "4960": "conform",
  "4961": "cardĠ",
  "4962": "ChineseĠ",
  "4963": "Mr",
  "4964": "Cong",
  "4965": "adel",
  "4966": "Vir",
  "4967": "organis",
  "4968": ".ĠManyĠ",
  "4969": "automat",
  "4970": "resourcesĠ",
  "4971": "hundred",
  "4972": "inĠyourĠ",
  "4973": "Technolog",
  "4974": "reasonĠ",
  "4975": "wond",
  "4976": "47",
  "4977": "groupĠofĠ",
  "4978": "ĠthereĠwereĠ",
  "4979": "Not",
  "4980": "atĠtheĠUniversityĠofĠ",
  "4981": "comparedĠtoĠ",
  "4982": "2012Ġ",
  "4983": "enhanc",
  "4984": "Writ",
  "4985": "ensionĠ",
  "4986": "relationship",
  "4987": "vegetabl",
  "4988": "influenc",
  "4989": "rangeĠ",
  "4990": "14Ġ",
  "4991": "eĠtheseĠ",
  "4992": "ecosystem",
  "4993": "lett",
  "4994": "ics,Ġ",
  "4995": "board",
  "4996": "BĠ",
  "4997": "cutĠ",
  "4998": "ishedĠ",
  "4999": "balanc",
  "5000": "ption",
  "5001": "ped",
  "5002": ",ĠheĠ",
  "5003": "uniqu",
  "5004": "deliver",
  "5005": "allyĠtheĠ",
  "5006": "means",
  "5007": "rock",
  "5008": "frag",
  "5009": "35",
  "5010": "Color",
  "5011": "edlyĠ",
  "5012": "Hol",
  "5013": "HighĠ",
  "5014": "ardi",
  "5015": "GeorgeĠ",
  "5016": "Sal",
  "5017": "Nol",
  "5018": "oxy",
  "5019": "studi",
  "5020": "Jacob",
  "5021": ".ĠPMIDĠ",
  "5022": "edom",
  "5023": "ed:Ġ",
  "5024": "-termĠ",
  "5025": "dre",
  "5026": "wereĠtheĠ",
  "5027": "givesĠ",
  "5028": "aĠlong",
  "5029": "commonlyĠ",
  "5030": "yĠofĠtheĠ",
  "5031": "Mic",
  "5032": "comesĠ",
  "5033": "belowĠ",
  "5034": "useĠtheĠ",
  "5035": "ane",
  "5036": "ome",
  "5037": "plic",
  "5038": "demand",
  "5039": "const",
  "5040": "extremelyĠ",
  "5041": "ĠteamĠ",
  "5042": "USĠ",
  "5043": "isol",
  "5044": "e?Ġ",
  "5045": "gradu",
  "5046": "choic",
  "5047": "divers",
  "5048": "evidenc",
  "5049": "’veĠ",
  "5050": "es.Ġ",
  "5051": "ecauseĠ",
  "5052": "patientĠ",
  "5053": "recover",
  "5054": "appli",
  "5055": "ondĠ",
  "5056": "propos",
  "5057": "dram",
  "5058": "ation,ĠandĠ",
  "5059": "gettingĠ",
  "5060": "sav",
  "5061": "dryĠ",
  "5062": "explain",
  "5063": "FirstĠ",
  "5064": "beaut",
  "5065": "storm",
  "5066": "Ġtransport",
  "5067": "againĠ",
  "5068": "immigr",
  "5069": "GO",
  "5070": "bothĠtheĠ",
  "5071": "sĠfromĠtheĠ",
  "5072": "gan",
  "5073": "as,Ġ",
  "5074": "urchĠ",
  "5075": "provinc",
  "5076": "Tod",
  "5077": "Kar",
  "5078": "securityĠ",
  "5079": "Victor",
  "5080": "ocial",
  "5081": "healthĠcareĠ",
  "5082": "Constitut",
  "5083": "ChinaĠ",
  "5084": "cann",
  "5085": "SyncopationĠ",
  "5086": ".ĠThereĠareĠ",
  "5087": "ellsĠ",
  "5088": "soundĠ",
  "5089": "ouch",
  "5090": "spirit",
  "5091": "e\"Ġ",
  "5092": "descriptionĠ",
  "5093": "eiveĠ",
  "5094": "ically",
  "5095": "factorĠ",
  "5096": "enabl",
  "5097": "nar",
  "5098": "deep",
  "5099": ".ĠAllĠ",
  "5100": "one-",
  "5101": "weak",
  "5102": "makeĠtheĠ",
  "5103": "vess",
  "5104": "royalĠ",
  "5105": "ingĠwithĠ",
  "5106": "InstituteĠofĠ",
  "5107": "relatedĠtoĠ",
  "5108": "properĠ",
  "5109": "behavior",
  "5110": "blockĠ",
  "5111": "48",
  "5112": "famousĠ",
  "5113": "proper",
  "5114": "scienceĠ",
  "5115": "arget",
  "5116": "rar",
  "5117": "himĠtoĠ",
  "5118": "element",
  "5119": "\nTh",
  "5120": "aryĠtoĠ",
  "5121": "announc",
  "5122": "hospit",
  "5123": "raz",
  "5124": "notĠtoĠ",
  "5125": "33",
  "5126": ".ĠItĠwasĠ",
  "5127": "damageĠ",
  "5128": "nuclearĠ",
  "5129": "ĠL",
  "5130": "Ġterm",
  "5131": "ancest",
  "5132": "187",
  "5133": "execut",
  "5134": "coast",
  "5135": "foundĠthatĠ",
  "5136": "breastĠ",
  "5137": "representativ",
  "5138": "yearsĠofĠ",
  "5139": "lossĠofĠ",
  "5140": "paperĠ",
  "5141": "colleg",
  "5142": "rolog",
  "5143": "philosoph",
  "5144": "SomeĠ",
  "5145": "Don",
  "5146": "ightlyĠ",
  "5147": "limitedĠ",
  "5148": "eĠtwoĠ",
  "5149": "excell",
  "5150": "idesĠ",
  "5151": "hes",
  "5152": "Ġtechniqu",
  "5153": "e,ĠaĠ",
  "5154": ".ĠThatĠ",
  "5155": "revers",
  "5156": "levelĠofĠ",
  "5157": "professionalĠ",
  "5158": "occas",
  "5159": "Ro",
  "5160": "atorĠ",
  "5161": "sĠthatĠtheĠ",
  "5162": "sĠasĠ",
  "5163": "identifyĠ",
  "5164": "Direct",
  "5165": "Grass",
  "5166": "eseĠs",
  "5167": "depart",
  "5168": "ĠthatĠthisĠ",
  "5169": "ilt",
  "5170": "resul",
  "5171": "emin",
  "5172": "EvenĠ",
  "5173": "ology",
  "5174": "accordingĠtoĠtheĠ",
  "5175": ",Ġand",
  "5176": "Stat",
  "5177": "cloth",
  "5178": "EnergyĠ",
  "5179": "ellow",
  "5180": "richĠ",
  "5181": "eĠthereĠ",
  "5182": "destroy",
  "5183": "criticalĠ",
  "5184": "adequ",
  "5185": "ield",
  "5186": "“TheĠ",
  "5187": "bottomĠ",
  "5188": "co-",
  "5189": "scientist",
  "5190": "\n-ĠS",
  "5191": "in\n",
  "5192": "HA",
  "5193": "omato",
  "5194": "mention",
  "5195": "Hung",
  "5196": "pir",
  "5197": "may",
  "5198": "AID",
  "5199": "ersĠwhoĠ",
  "5200": "swe",
  "5201": "definit",
  "5202": "checkĠ",
  "5203": ".ĠForĠexample,Ġ",
  "5204": "Ġsit",
  "5205": "indic",
  "5206": "accountĠ",
  "5207": "coordin",
  "5208": "acrossĠ",
  "5209": "similarĠ",
  "5210": "ersĠ(",
  "5211": "ently",
  "5212": "CL",
  "5213": "3.",
  "5214": "showsĠ",
  "5215": "aftĠ",
  "5216": "fight",
  "5217": "years.Ġ",
  "5218": "calledĠtheĠ",
  "5219": "aĠP",
  "5220": "levelsĠofĠ",
  "5221": "s-",
  "5222": "exact",
  "5223": "KĠ",
  "5224": "iĠandĠ",
  "5225": "ĠtowardĠ",
  "5226": "notĠtheĠ",
  "5227": "ancientĠ",
  "5228": "entĠandĠ",
  "5229": "overallĠ",
  "5230": "2004",
  "5231": "CaliforniaĠ",
  "5232": "check",
  "5233": "construct",
  "5234": "notic",
  "5235": "IB",
  "5236": "greenĠ",
  "5237": "lob",
  "5238": "dynam",
  "5239": "Inc",
  "5240": "becomesĠ",
  "5241": "necessaryĠ",
  "5242": "attr",
  "5243": "analysisĠ",
  "5244": "andĠandĠ",
  "5245": "eventĠ",
  "5246": "Him",
  "5247": "possibil",
  "5248": "EastĠ",
  "5249": "destruc",
  "5250": "labor",
  "5251": ".ĠOneĠ",
  "5252": "black",
  "5253": "gotĠ",
  "5254": "problemsĠ",
  "5255": "react",
  "5256": "fluor",
  "5257": "containĠ",
  "5258": "iff",
  "5259": "journalĠ",
  "5260": "y'sĠ",
  "5261": "FigureĠ",
  "5262": "compress",
  "5263": "acidĠ",
  "5264": "sin",
  "5265": "age",
  "5266": "ench",
  "5267": "cong",
  "5268": "eĠwasĠ",
  "5269": "worksĠ",
  "5270": "izationĠ",
  "5271": "declar",
  "5272": "people,Ġ",
  "5273": "much",
  "5274": "mightĠbeĠ",
  "5275": "soft",
  "5276": "'llĠ",
  "5277": "purchas",
  "5278": "e:\n",
  "5279": "install",
  "5280": "sectionĠ",
  "5281": "Profess",
  "5282": "jour",
  "5283": ".ĠCh",
  "5284": "makeĠaĠ",
  "5285": "winĠ",
  "5286": "outsideĠ",
  "5287": "ionsĠofĠ",
  "5288": "Do",
  "5289": "dd",
  "5290": "benefitĠ",
  "5291": "YourĠ",
  "5292": "mentĠandĠ",
  "5293": "endingĠ",
  "5294": "upperĠ",
  "5295": "bĠ",
  "5296": "standingĠ",
  "5297": "index",
  "5298": "Jos",
  "5299": "65",
  "5300": "val",
  "5301": "iesĠareĠ",
  "5302": "Dem",
  "5303": "orm",
  "5304": "providingĠ",
  "5305": "mur",
  "5306": "fel",
  "5307": "hotĠ",
  "5308": "vel",
  "5309": "conclus",
  "5310": "arrang",
  "5311": "effectsĠ",
  "5312": "cred",
  "5313": "moneyĠ",
  "5314": "mitĠ",
  "5315": "eventuallyĠ",
  "5316": "eastĠ",
  "5317": "payĠ",
  "5318": "Ġsaid",
  "5319": "and/",
  "5320": "galax",
  "5321": "ually",
  "5322": "angl",
  "5323": "authoritiesĠ",
  "5324": "woodĠ",
  "5325": "wildlifeĠ",
  "5326": "pp.Ġ",
  "5327": "nest",
  "5328": "beat",
  "5329": "deriv",
  "5330": "hetor",
  "5331": "airieĠ",
  "5332": "WolbachiaĠ",
  "5333": "exhib",
  "5334": "widelyĠ",
  "5335": "coldĠ",
  "5336": "Ġtru",
  "5337": "ensu",
  "5338": "averageĠ",
  "5339": "email",
  "5340": "restrict",
  "5341": "userĠ",
  "5342": ".ĠSoĠ",
  "5343": "esĠonĠ",
  "5344": "aĠlotĠofĠ",
  "5345": "atmosphericĠ",
  "5346": "avoidĠ",
  "5347": "edĠthroughĠ",
  "5348": "boardĠ",
  "5349": "fun",
  "5350": "favor",
  "5351": "s.ĠTheseĠ",
  "5352": "ia'sĠ",
  "5353": "elev",
  "5354": "ipĠ",
  "5355": "figureĠ",
  "5356": "depos",
  "5357": "sevenĠ",
  "5358": "who",
  "5359": "tionĠofĠtheĠ",
  "5360": "stopĠ",
  "5361": "cept",
  "5362": "electron",
  "5363": "sĠperĠ",
  "5364": "ellowĠ",
  "5365": "dealĠ",
  "5366": "adultĠ",
  "5367": "MoreĠ",
  "5368": "17Ġ",
  "5369": "et,Ġ",
  "5370": "syncop",
  "5371": "hasĠtheĠ",
  "5372": "mas",
  "5373": "historicalĠ",
  "5374": "hyp",
  "5375": "Lat",
  "5376": "ations",
  "5377": "MP",
  "5378": "bringĠ",
  "5379": "embl",
  "5380": "driveĠ",
  "5381": "Bel",
  "5382": "renew",
  "5383": "atedĠinĠ",
  "5384": "agedĠ",
  "5385": "Lou",
  "5386": "initiativ",
  "5387": "Ġtax",
  "5388": "Part",
  "5389": "care",
  "5390": "ull",
  "5391": "fath",
  "5392": "Her",
  "5393": "one,Ġ",
  "5394": "Pal",
  "5395": "heavyĠ",
  "5396": "iber",
  "5397": "whatĠtheyĠ",
  "5398": "migr",
  "5399": "Trans",
  "5400": "architect",
  "5401": "watch",
  "5402": "189",
  "5403": "hun",
  "5404": "TE",
  "5405": "AlexanderĠ",
  "5406": "mac",
  "5407": "otalĠ",
  "5408": "antib",
  "5409": "productiveĠ",
  "5410": "eĠtreatmentĠ",
  "5411": "dwar",
  "5412": "JavaĠ",
  "5413": "considerĠ",
  "5414": "rightĠtoĠ",
  "5415": "dim",
  "5416": "girl",
  "5417": "allĠofĠtheĠ",
  "5418": "Pet",
  "5419": "WhyĠ",
  "5420": "oftĠ",
  "5421": "Vol",
  "5422": "gainĠ",
  "5423": "edĠtoĠaĠ",
  "5424": "Manag",
  "5425": "WashingtonĠ",
  "5426": "simpleĠ",
  "5427": "Ġteam",
  "5428": "analyz",
  "5429": "darkĠ",
  "5430": "lip",
  "5431": "saysĠ",
  "5432": "brok",
  "5433": "van",
  "5434": "-M",
  "5435": "broth",
  "5436": "a,ĠtheĠ",
  "5437": "ray",
  "5438": "esĠhaveĠ",
  "5439": "OB",
  "5440": "sho",
  "5441": "select",
  "5442": "alkingĠ",
  "5443": "e\"",
  "5444": ".ĠIfĠtheĠ",
  "5445": ",ĠK",
  "5446": "whoĠareĠ",
  "5447": "formsĠofĠ",
  "5448": "mathemat",
  "5449": "RomanĠ",
  "5450": "expans",
  "5451": "instruc",
  "5452": "olar",
  "5453": "AccordingĠtoĠ",
  "5454": "conclud",
  "5455": "magnet",
  "5456": "edĠatĠtheĠ",
  "5457": "circum",
  "5458": "membersĠofĠtheĠ",
  "5459": "ili",
  "5460": "32",
  "5461": "stableĠ",
  "5462": "processĠofĠ",
  "5463": "line",
  "5464": "UĠ",
  "5465": "command",
  "5466": "heĠhadĠ",
  "5467": "aĠseriesĠofĠ",
  "5468": "whe",
  "5469": "edĠintoĠtheĠ",
  "5470": "enforc",
  "5471": "umber",
  "5472": "win",
  "5473": "consul",
  "5474": "anceĠandĠ",
  "5475": "neĠ",
  "5476": "IĠamĠ",
  "5477": "bert",
  "5478": "Libr",
  "5479": "sleep",
  "5480": "kidsĠ",
  "5481": "iou",
  "5482": "deviceĠ",
  "5483": "ofĠtwoĠ",
  "5484": "operatingĠ",
  "5485": "yst",
  "5486": "revolution",
  "5487": "able,Ġ",
  "5488": "correspond",
  "5489": "protectĠ",
  "5490": "HO",
  "5491": "500",
  "5492": "German",
  "5493": "discrimin",
  "5494": "belief",
  "5495": "NewĠYork",
  "5496": "fruit",
  "5497": "untilĠtheĠ",
  "5498": "factorsĠ",
  "5499": "anĠimportantĠ",
  "5500": "later",
  "5501": "questionĠ",
  "5502": "deliv",
  "5503": "-ĠtheĠ",
  "5504": "distr",
  "5505": "ing.ĠTheĠ",
  "5506": "ft",
  "5507": "hisĠownĠ",
  "5508": "ermĠ",
  "5509": "severeĠ",
  "5510": "osis",
  "5511": "surg",
  "5512": "used",
  "5513": "harm",
  "5514": "legislat",
  "5515": "iewĠ",
  "5516": "It'sĠ",
  "5517": "interĠ",
  "5518": "Sen",
  "5519": "importantĠtoĠ",
  "5520": "could",
  "5521": "orient",
  "5522": "shotĠ",
  "5523": "haz",
  "5524": "suppos",
  "5525": "Tur",
  "5526": ".ĠWhileĠ",
  "5527": "hadĠtoĠ",
  "5528": "branch",
  "5529": "agric",
  "5530": "agricult",
  "5531": "Mos",
  "5532": "insect",
  "5533": "citizen",
  "5534": "search",
  "5535": "companyĠ",
  "5536": "and\n",
  "5537": "ocyt",
  "5538": "himselfĠ",
  "5539": "Abr",
  "5540": "fron",
  "5541": "ersĠofĠtheĠ",
  "5542": "8,Ġ",
  "5543": "low-",
  "5544": "emot",
  "5545": "angeĠ",
  "5546": "SS",
  "5547": "odivers",
  "5548": ".ĠEx",
  "5549": "doi",
  "5550": "Keny",
  "5551": "relativelyĠ",
  "5552": "providedĠ",
  "5553": "defend",
  "5554": "185",
  "5555": "rab",
  "5556": "marriageĠ",
  "5557": "entalĠ",
  "5558": "decision",
  "5559": "Thom",
  "5560": "hostĠ",
  "5561": "amentalĠ",
  "5562": "edul",
  "5563": "eĠtrans",
  "5564": "aĠlittleĠ",
  "5565": "categ",
  "5566": "e.ĠInĠ",
  "5567": "ingĠonĠtheĠ",
  "5568": "phon",
  "5569": "reaction",
  "5570": ",ĠtheseĠ",
  "5571": "difficultĠtoĠ",
  "5572": "MyĠ",
  "5573": "percentĠofĠtheĠ",
  "5574": "Convent",
  "5575": "elimin",
  "5576": "responsibleĠforĠ",
  "5577": "inher",
  "5578": "top",
  "5579": "anĠandĠ",
  "5580": "improveĠ",
  "5581": "Ut",
  "5582": "roll",
  "5583": "prom",
  "5584": "icialĠ",
  "5585": "muscl",
  "5586": ".ĠMostĠ",
  "5587": "abilityĠofĠ",
  "5588": "Resourc",
  "5589": "edĠofĠ",
  "5590": "relev",
  "5591": "avoid",
  "5592": "aĠtoĠ",
  "5593": "ementĠofĠ",
  "5594": "ery",
  "5595": "…Ġ",
  "5596": "everalĠ",
  "5597": "attribut",
  "5598": "ision",
  "5599": "EnvironmentalĠ",
  "5600": "Ġmet",
  "5601": "establishedĠ",
  "5602": "keptĠ",
  "5603": "es.",
  "5604": "Viet",
  "5605": "largerĠ",
  "5606": "oust",
  "5607": "hyth",
  "5608": "GreatĠ",
  "5609": "capital",
  "5610": "discus",
  "5611": "comment",
  "5612": "ĠtryingĠtoĠ",
  "5613": "NoĠ",
  "5614": "Mc",
  "5615": "ival",
  "5616": "Bro",
  "5617": "Right",
  "5618": "lackĠofĠ",
  "5619": "doi:",
  "5620": "doi:10.",
  "5621": "habitat",
  "5622": "weatherĠ",
  "5623": "CS",
  "5624": "VĠ",
  "5625": "domesticĠ",
  "5626": "calc",
  "5627": "Arct",
  "5628": "feud",
  "5629": "[*]Ġ",
  "5630": "ConsulsĠ",
  "5631": "eĠthan",
  "5632": "anyĠotherĠ",
  "5633": "ive,Ġ",
  "5634": "everyoneĠ",
  "5635": "Wind",
  "5636": "outĠofĠtheĠ",
  "5637": "wo",
  "5638": "s,ĠaĠ",
  "5639": "Mich",
  "5640": "optim",
  "5641": "incor",
  "5642": "flowĠ",
  "5643": "AnotherĠ",
  "5644": "addres",
  "5645": "1999",
  "5646": ",ĠisĠ",
  "5647": "atter",
  "5648": "coc",
  "5649": "medicin",
  "5650": "John",
  "5651": "hĠofĠ",
  "5652": "s:\n",
  "5653": "getĠtheĠ",
  "5654": "escap",
  "5655": "Diseas",
  "5656": "estimat",
  "5657": ",”Ġs",
  "5658": "fordĠ",
  "5659": "ht",
  "5660": "Ġthat,Ġ",
  "5661": "weekĠ",
  "5662": "offersĠ",
  "5663": "issueĠ",
  "5664": "pain",
  "5665": "innov",
  "5666": "Lab",
  "5667": "acquaint",
  "5668": "caseĠofĠ",
  "5669": "sĠandĠotherĠ",
  "5670": "oupl",
  "5671": "esĠandĠtheĠ",
  "5672": "Feder",
  "5673": "efficienc",
  "5674": "successĠ",
  "5675": "ermalĠ",
  "5676": "restĠ",
  "5677": "incol",
  "5678": "proport",
  "5679": "sinceĠtheĠ",
  "5680": "famili",
  "5681": ",ĠG",
  "5682": "es\n-Ġ",
  "5683": "mann",
  "5684": "safetyĠ",
  "5685": "mayĠhaveĠ",
  "5686": ",ĠwhichĠisĠ",
  "5687": "bind",
  "5688": "sound",
  "5689": "ĠtryĠtoĠ",
  "5690": "gun",
  "5691": "THEĠ",
  "5692": "aul",
  "5693": "fossil",
  "5694": "blu",
  "5695": "heĠsaid",
  "5696": "dog",
  "5697": "yĠwasĠ",
  "5698": "justic",
  "5699": "insp",
  "5700": "Mag",
  "5701": "stro",
  "5702": "Ham",
  "5703": "visitĠ",
  "5704": "shad",
  "5705": "marineĠ",
  "5706": "bully",
  "5707": "structure",
  "5708": "etic",
  "5709": "JonahĠ",
  "5710": "highĠpressureĠ",
  "5711": "adelph",
  "5712": "aĠtr",
  "5713": "answer",
  "5714": "exampleĠ",
  "5715": "won",
  "5716": "derĠ",
  "5717": "ifyĠ",
  "5718": "loadĠ",
  "5719": "productsĠ",
  "5720": "runningĠ",
  "5721": "wantĠ",
  "5722": "typ",
  "5723": "erefore,Ġ",
  "5724": ")ĠisĠ",
  "5725": "wast",
  "5726": ".\nR",
  "5727": "electionĠ",
  "5728": "Kid",
  "5729": "ures,Ġ",
  "5730": "growĠ",
  "5731": "Cre",
  "5732": "Hom",
  "5733": "SpaceĠ",
  "5734": "whenĠtheyĠ",
  "5735": "UNĠ",
  "5736": "XĠ",
  "5737": "spap",
  "5738": "eĠthrough",
  "5739": "18Ġ",
  "5740": "deal",
  "5741": "affectĠ",
  "5742": "appe",
  "5743": "educationalĠ",
  "5744": "bt",
  "5745": "content",
  "5746": "industrialĠ",
  "5747": "ison",
  "5748": "youĠwillĠ",
  "5749": "Av",
  "5750": "front",
  "5751": "Ġther",
  "5752": "oct",
  "5753": "maintainĠ",
  "5754": "worth",
  "5755": "\nC",
  "5756": "clearlyĠ",
  "5757": "Ġtrav",
  "5758": "Il",
  "5759": "ersĠthatĠ",
  "5760": "aph",
  "5761": "GovernmentĠ",
  "5762": "CanadianĠ",
  "5763": "Christian",
  "5764": ".ĠEv",
  "5765": "mostĠofĠtheĠ",
  "5766": "primarilyĠ",
  "5767": "vitaminĠ",
  "5768": "Bul",
  "5769": "subjectĠ",
  "5770": "ageĠandĠ",
  "5771": ".ĠByĠ",
  "5772": "offĠtheĠ",
  "5773": "uran",
  "5774": "ingĠanĠ",
  "5775": "tingĠ",
  "5776": "anythingĠ",
  "5777": "everythingĠ",
  "5778": "ultim",
  "5779": "trans",
  "5780": "kingdom",
  "5781": "endĠofĠ",
  "5782": "ymptom",
  "5783": "NO",
  "5784": "ycl",
  "5785": "EP",
  "5786": "gy",
  "5787": "thĠcenturyĠ",
  "5788": "cut",
  "5789": ",ĠT",
  "5790": "Austri",
  "5791": "amb",
  "5792": "aminoĠacid",
  "5793": "alb",
  "5794": "inos",
  "5795": "bedsĠ",
  "5796": "usualĠ",
  "5797": "s’Ġ",
  "5798": "IG",
  "5799": ".ĠIfĠyouĠ",
  "5800": "Ġcour",
  "5801": "itiesĠandĠ",
  "5802": "IfĠyouĠ",
  "5803": "ocksĠ",
  "5804": "receiveĠ",
  "5805": "ĠtoĠthisĠ",
  "5806": ",ĠanĠ",
  "5807": "ers,ĠandĠ",
  "5808": "Hen",
  "5809": "significantlyĠ",
  "5810": "JournalĠofĠ",
  "5811": "Now",
  "5812": "youĠtoĠ",
  "5813": "BayĠ",
  "5814": ",ĠF",
  "5815": "ivesĠ",
  "5816": "NASAĠ",
  "5817": "namedĠ",
  "5818": "becauseĠitĠ",
  "5819": "includedĠ",
  "5820": "lung",
  "5821": "TheseĠ",
  "5822": "er.\n",
  "5823": "Jo",
  "5824": "emĠ",
  "5825": "With",
  "5826": "ing:Ġ",
  "5827": "loy",
  "5828": "isonĠ",
  "5829": "matt",
  "5830": "visualĠ",
  "5831": "anceĠofĠtheĠ",
  "5832": "ersĠforĠ",
  "5833": "mentalĠdisord",
  "5834": "Hos",
  "5835": "careful",
  "5836": "PS",
  "5837": "las",
  "5838": "popular",
  "5839": "changesĠ",
  "5840": "ION",
  "5841": ".ĠAlthoughĠ",
  "5842": "advis",
  "5843": "stra",
  "5844": "afet",
  "5845": "permanentĠ",
  "5846": "measuredĠ",
  "5847": "occurr",
  "5848": "DO",
  "5849": "wayĠofĠ",
  "5850": "remot",
  "5851": "obl",
  "5852": "andĠotherĠ",
  "5853": "ing,ĠtheĠ",
  "5854": "iftĠ",
  "5855": "Sud",
  "5856": "RedĠ",
  "5857": "regularĠ",
  "5858": "ographicĠ",
  "5859": "streamĠ",
  "5860": "Str",
  "5861": "enceĠandĠ",
  "5862": "oped",
  "5863": "elementsĠ",
  "5864": "alternat",
  "5865": "LE",
  "5866": ".ĠOnĠ",
  "5867": "RĠ",
  "5868": "ThereĠareĠ",
  "5869": "and/orĠ",
  "5870": "landsc",
  "5871": "Mat",
  "5872": "34",
  "5873": "breath",
  "5874": "mail",
  "5875": "ii",
  "5876": "Hous",
  "5877": "machin",
  "5878": "gall",
  "5879": "Organ",
  "5880": "eĠsomeĠ",
  "5881": "chemical",
  "5882": "aughtĠ",
  "5883": "Ever",
  "5884": "birthĠdefect",
  "5885": "earthĠ",
  "5886": "intellectualĠpropertyĠ",
  "5887": "asĠmuchĠ",
  "5888": "Abd",
  "5889": "___Ġ",
  "5890": "secut",
  "5891": "Lolion",
  "5892": "choos",
  "5893": "allĠofĠ",
  "5894": "PublicĠ",
  "5895": "forĠanĠ",
  "5896": "someoneĠ",
  "5897": ".ĠWith",
  "5898": ",ĠthereĠareĠ",
  "5899": ")ĠinĠ",
  "5900": "InformationĠ",
  "5901": "Produc",
  "5902": "opyrightĠ",
  "5903": "reduceĠtheĠ",
  "5904": "uckĠ",
  "5905": "pressĠ",
  "5906": "enousĠ",
  "5907": "maintain",
  "5908": "Net",
  "5909": "whereĠtheyĠ",
  "5910": "standĠ",
  "5911": "readingĠ",
  "5912": "newspap",
  "5913": "counter",
  "5914": "Ġtoward",
  "5915": "orityĠ",
  "5916": "Dist",
  "5917": "deepĠ",
  "5918": "neededĠtoĠ",
  "5919": "children,Ġ",
  "5920": ".0",
  "5921": "99",
  "5922": "igg",
  "5923": "courseĠ",
  "5924": "meetĠ",
  "5925": "Div",
  "5926": "ras",
  "5927": "wish",
  "5928": "rid",
  "5929": "previouslyĠ",
  "5930": "iol",
  "5931": "attend",
  "5932": "night",
  "5933": "maĠ",
  "5934": "antĠtoĠ",
  "5935": "symbol",
  "5936": "OnĠtheĠ",
  "5937": "island",
  "5938": "ationĠinĠtheĠ",
  "5939": "parall",
  "5940": "ouncilĠ",
  "5941": "cooper",
  "5942": "resident",
  "5943": "an-",
  "5944": "),ĠtheĠ",
  "5945": "still",
  "5946": "sustainableĠ",
  "5947": "grand",
  "5948": "Sm",
  "5949": "Egypt",
  "5950": "'t",
  "5951": "rĠ",
  "5952": "WorldĠWarĠ",
  "5953": "orialĠ",
  "5954": "correct",
  "5955": "pound",
  "5956": "violenceĠ",
  "5957": ".Ġdoi:10.",
  "5958": "udĠ",
  "5959": "Lo",
  "5960": "Navaj",
  "5961": "METĠ",
  "5962": "Ser",
  "5963": "hoodĠ",
  "5964": "listĠ",
  "5965": "rown",
  "5966": "womanĠ",
  "5967": "practicalĠ",
  "5968": "else",
  "5969": "Op",
  "5970": ".ĠRe",
  "5971": "separateĠ",
  "5972": ".ĠAnĠ",
  "5973": "coverĠ",
  "5974": "urther",
  "5975": "Cal",
  "5976": "ĠforĠ",
  "5977": "iddenĠ",
  "5978": "neit",
  "5979": "Ġcol",
  "5980": "andĠaĠ",
  "5981": "Museum",
  "5982": "historyĠofĠ",
  "5983": "planetĠ",
  "5984": "eur",
  "5985": "se,Ġ",
  "5986": "campa",
  "5987": "metabol",
  "5988": "Jer",
  "5989": "Fac",
  "5990": "ReadĠ",
  "5991": "modelĠ",
  "5992": "Scot",
  "5993": "Cath",
  "5994": "olicĠ",
  "5995": "enedĠ",
  "5996": "ealĠ",
  "5997": "fromĠtheirĠ",
  "5998": "conditionĠ",
  "5999": "htm",
  "6000": "emergencyĠ",
  "6001": "systemsĠ",
  "6002": "cer",
  "6003": "ollowĠ",
  "6004": "eyeĠ",
  "6005": "immediatelyĠ",
  "6006": "inĠsomeĠ",
  "6007": "rupt",
  "6008": "resultĠofĠ",
  "6009": "femal",
  "6010": "appropriateĠ",
  "6011": "goesĠ",
  "6012": "1/",
  "6013": "nal",
  "6014": "independentĠ",
  "6015": ":Ġ\"",
  "6016": "eĠtoĠbeĠ",
  "6017": "sĠinĠaĠ",
  "6018": "contact",
  "6019": "edingĠ",
  "6020": "ocraticĠ",
  "6021": "maximumĠ",
  "6022": "junc",
  "6023": "ationĠofĠaĠ",
  "6024": "neut",
  "6025": "extremeĠ",
  "6026": "aĠfew",
  "6027": "ignor",
  "6028": "chosenĠ",
  "6029": "castĠ",
  "6030": "eĠthroughĠ",
  "6031": "AfricanĠ",
  "6032": "blyĠ",
  "6033": "regionalĠ",
  "6034": "AmericaĠ",
  "6035": "mir",
  "6036": "backĠtoĠ",
  "6037": "lit",
  "6038": "statesĠ",
  "6039": "pun",
  "6040": "ing-",
  "6041": "industryĠ",
  "6042": "ulf",
  "6043": "TexasĠ",
  "6044": "groupsĠ",
  "6045": "I,Ġ",
  "6046": "Ġco",
  "6047": "icsĠandĠ",
  "6048": "laborĠ",
  "6049": "itsĠownĠ",
  "6050": "Ġmed",
  "6051": "confirm",
  "6052": "interestedĠinĠ",
  "6053": "fing",
  "6054": "burg",
  "6055": "00-",
  "6056": "ulpt",
  "6057": "mand",
  "6058": "pedĠ",
  "6059": "178",
  "6060": "gi",
  "6061": "defens",
  "6062": "reducedĠ",
  "6063": "merch",
  "6064": "AB",
  "6065": "mayĠnotĠ",
  "6066": "anx",
  "6067": "BookĠ",
  "6068": "differenc",
  "6069": "you'reĠ",
  "6070": "ingĠyourĠ",
  "6071": "ership",
  "6072": "edĠin",
  "6073": "option",
  "6074": "requiredĠtoĠ",
  "6075": "volunte",
  "6076": "comprehensiveĠ",
  "6077": "s,ĠsuchĠasĠ",
  "6078": "ANDĠ",
  "6079": "eenĠ",
  "6080": "leadĠ",
  "6081": "spin",
  "6082": "neighbor",
  "6083": "year-",
  "6084": "agĠ",
  "6085": "King",
  "6086": "(S",
  "6087": "1998",
  "6088": "leadingĠ",
  "6089": "illegalĠ",
  "6090": "asth",
  "6091": "verĠ",
  "6092": "sugar",
  "6093": "family",
  "6094": "reform",
  "6095": "Bir",
  "6096": "enoughĠtoĠ",
  "6097": "restĠofĠtheĠ",
  "6098": "equalĠ",
  "6099": "teen",
  "6100": "wereĠnotĠ",
  "6101": "eningĠ",
  "6102": "reatmentĠ",
  "6103": "sĠof",
  "6104": "2001",
  "6105": "ded",
  "6106": "approachĠ",
  "6107": "coupl",
  "6108": "Minist",
  "6109": "a.ĠTheĠ",
  "6110": "mostlyĠ",
  "6111": "el,Ġ",
  "6112": "chann",
  "6113": "windĠ",
  "6114": "ationsĠinĠ",
  "6115": "ideaĠ",
  "6116": "ko",
  "6117": "WesternĠ",
  "6118": "however",
  "6119": "smallerĠ",
  "6120": "music",
  "6121": "surpris",
  "6122": "direction",
  "6123": "~Ġ",
  "6124": "ester",
  "6125": "leop",
  "6126": "facilit",
  "6127": "outcom",
  "6128": "ieldĠ",
  "6129": "DL",
  "6130": "NaturalĠ",
  "6131": "Histor",
  "6132": "anth",
  "6133": "isco",
  "6134": "7,Ġ",
  "6135": "addĠ",
  "6136": "ĠtreatĠ",
  "6137": "Ġtraffic",
  "6138": "179",
  "6139": "eaĠ",
  "6140": "Island",
  "6141": "Ġtur",
  "6142": "ive",
  "6143": "gri",
  "6144": "radiationĠ",
  "6145": ".ĠAnd",
  "6146": "echnicalĠ",
  "6147": "wildĠ",
  "6148": "MountĠ",
  "6149": "motor",
  "6150": "amar",
  "6151": "cem",
  "6152": "appletĠ",
  "6153": "dependentĠ",
  "6154": "showedĠ",
  "6155": "ineĠandĠ",
  "6156": ".ĠSheĠ",
  "6157": ".)Ġ",
  "6158": "atorsĠ",
  "6159": "increasinglyĠ",
  "6160": "essĠofĠ",
  "6161": "ree-",
  "6162": "boy",
  "6163": "aloneĠ",
  "6164": "ories",
  "6165": "orĠisĠ",
  "6166": ".ĠUn",
  "6167": "datedĠ",
  "6168": "doesn'tĠ",
  "6169": "employe",
  "6170": "ations.\n",
  "6171": "slightlyĠ",
  "6172": "Ġserv",
  "6173": ".ĠYouĠ",
  "6174": "kindsĠofĠ",
  "6175": "all,Ġ",
  "6176": "booksĠ",
  "6177": "alsoĠtheĠ",
  "6178": "reportedĠthatĠ",
  "6179": "awareĠ",
  "6180": "ateĠandĠ",
  "6181": "orch",
  "6182": "promoteĠ",
  "6183": "increasingĠ",
  "6184": "aspect",
  "6185": "continuedĠtoĠ",
  "6186": "enderĠ",
  "6187": "Hy",
  "6188": "s/",
  "6189": "es.\n-Ġ",
  "6190": "season",
  "6191": "frequentlyĠ",
  "6192": "struggl",
  "6193": "Coll",
  "6194": "actĠofĠ",
  "6195": "becomingĠ",
  "6196": "ersĠtheĠ",
  "6197": "oler",
  "6198": "possibleĠtoĠ",
  "6199": "performanc",
  "6200": "Bal",
  "6201": "goalĠ",
  "6202": "omicĠ",
  "6203": "academ",
  "6204": "Span",
  "6205": "starsĠ",
  "6206": "speciesĠofĠ",
  "6207": "s—",
  "6208": ".\nAsĠ",
  "6209": "conflict",
  "6210": "arkĠ",
  "6211": "contrast",
  "6212": "centuryĠ",
  "6213": "water,Ġ",
  "6214": "connectionĠ",
  "6215": "ĠtotalĠ",
  "6216": "villageĠ",
  "6217": "stead",
  "6218": "wee",
  "6219": "substant",
  "6220": "programm",
  "6221": "fterĠtheĠ",
  "6222": "usĠandĠ",
  "6223": "ItalianĠ",
  "6224": "grownĠ",
  "6225": "remainsĠ",
  "6226": "es;Ġ",
  "6227": "a)Ġ",
  "6228": "s.\nInĠ",
  "6229": "yearsĠago",
  "6230": "esĠthatĠareĠ",
  "6231": "insideĠtheĠ",
  "6232": "pieceĠofĠ",
  "6233": "prescri",
  "6234": "starĠ",
  "6235": "Phot",
  "6236": "breakĠ",
  "6237": "harvest",
  "6238": "occurredĠ",
  "6239": "roph",
  "6240": "Steph",
  "6241": "diabetesĠ",
  "6242": "venileĠ",
  "6243": "prosecut",
  "6244": "curdĠ",
  "6245": "finallyĠ",
  "6246": "75",
  "6247": "motherĠ",
  "6248": "effectĠofĠ",
  "6249": "elsĠ",
  "6250": "seemsĠtoĠ",
  "6251": ".ĠTheyĠareĠ",
  "6252": "humansĠ",
  "6253": "needĠforĠ",
  "6254": "easi",
  "6255": "invent",
  "6256": "anyoneĠ",
  "6257": "Over",
  "6258": "aĠgoodĠ",
  "6259": "er,ĠandĠ",
  "6260": ".ĠInĠthisĠ",
  "6261": ",ĠsoĠ",
  "6262": "advancedĠ",
  "6263": "more,Ġ",
  "6264": "No",
  "6265": "ushĠ",
  "6266": "characteristic",
  "6267": "accompl",
  "6268": "difficultĠ",
  "6269": "dueĠtoĠtheĠ",
  "6270": "collabor",
  "6271": "PrinceĠ",
  "6272": "explan",
  "6273": "ionsĠinĠ",
  "6274": "uponĠtheĠ",
  "6275": "WilliamĠ",
  "6276": "Roy",
  "6277": "sac",
  "6278": "potentiallyĠ",
  "6279": "abilitiesĠ",
  "6280": "HowardĠ",
  "6281": "Whil",
  "6282": "whoĠhaveĠ",
  "6283": "icult",
  "6284": ".ĠAsĠaĠ",
  "6285": "getsĠ",
  "6286": "bow",
  "6287": "aryĠofĠ",
  "6288": "pitalĠ",
  "6289": "absorb",
  "6290": "knownĠasĠtheĠ",
  "6291": "impress",
  "6292": "2013",
  "6293": "endsĠ",
  "6294": "addedĠ",
  "6295": "partsĠofĠtheĠ",
  "6296": "carĠ",
  "6297": "other,Ġ",
  "6298": "atĠleast",
  "6299": "viaĠ",
  "6300": "focusedĠ",
  "6301": "May",
  "6302": "wear",
  "6303": "roundĠ",
  "6304": "component",
  "6305": "rin",
  "6306": "redi",
  "6307": "shel",
  "6308": "s,ĠandĠtheĠ",
  "6309": "phenomen",
  "6310": "energy",
  "6311": "yleĠ",
  "6312": "Goog",
  "6313": "forestĠ",
  "6314": "46",
  "6315": "e,\"Ġ",
  "6316": "forcesĠ",
  "6317": "bell",
  "6318": "remainedĠ",
  "6319": "I'",
  "6320": "Pen",
  "6321": "hem",
  "6322": "NorthernĠ",
  "6323": "wasĠtoĠ",
  "6324": "Ott",
  "6325": ",ĠV",
  "6326": ">Ġ",
  "6327": "markĠ",
  "6328": "ethĠ",
  "6329": "matureĠ",
  "6330": "istryĠofĠ",
  "6331": "paidĠ",
  "6332": "ET",
  "6333": "gor",
  "6334": "Ali",
  "6335": "freedom",
  "6336": "domĠ",
  "6337": "suchĠaĠ",
  "6338": "powerfulĠ",
  "6339": "nightĠ",
  "6340": ".ĠTheirĠ",
  "6341": "essent",
  "6342": "someĠs",
  "6343": "evolv",
  "6344": "pon",
  "6345": "Miss",
  "6346": "whenĠyouĠ",
  "6347": "amountĠ",
  "6348": "ately",
  "6349": "referredĠtoĠ",
  "6350": "InternetĠ",
  "6351": "ationĠthatĠ",
  "6352": "publishedĠ",
  "6353": "ĠtypicallyĠ",
  "6354": "appearĠ",
  "6355": "ionsĠareĠ",
  "6356": "sunĠ",
  "6357": "itĠwillĠ",
  "6358": "raditionalĠ",
  "6359": "gestĠ",
  "6360": "armac",
  "6361": "helpedĠ",
  "6362": "national",
  "6363": "English",
  "6364": "invas",
  "6365": "berg",
  "6366": "),ĠwhichĠ",
  "6367": "greatlyĠ",
  "6368": "ional",
  "6369": "communities",
  "6370": "soil",
  "6371": "serviceĠ",
  "6372": "Loc",
  "6373": "LO",
  "6374": "quicklyĠ",
  "6375": "export",
  "6376": "influenceĠ",
  "6377": "causingĠ",
  "6378": "istak",
  "6379": "aĠsignificantĠ",
  "6380": "31",
  "6381": "ingĠitĠ",
  "6382": "oughtĠtoĠ",
  "6383": "cannotĠbeĠ",
  "6384": "izingĠ",
  "6385": "rub",
  "6386": ").\nTheĠ",
  "6387": "partyĠ",
  "6388": "ageĠofĠtheĠ",
  "6389": "rim",
  "6390": "notĠbeenĠ",
  "6391": "ifĠtheyĠ",
  "6392": "pig",
  "6393": "explo",
  "6394": "ĠofĠaĠ",
  "6395": "beautiful",
  "6396": "returnĠ",
  "6397": "Sub",
  "6398": "aboveĠtheĠ",
  "6399": "elĠandĠ",
  "6400": "Group",
  "6401": "clickĠ",
  "6402": "allĠs",
  "6403": "Lond",
  "6404": "39",
  "6405": "Ġtown",
  "6406": "wif",
  "6407": "ior",
  "6408": "atedĠbyĠtheĠ",
  "6409": "aggress",
  "6410": "fle",
  "6411": "Den",
  "6412": "-C",
  "6413": "sculpt",
  "6414": "unk",
  "6415": "asticĠ",
  "6416": "ility",
  "6417": "hadĠtheĠ",
  "6418": "arant",
  "6419": "lossĠ",
  "6420": "ysi",
  "6421": "(C",
  "6422": "mast",
  "6423": "award",
  "6424": "error",
  "6425": "RI",
  "6426": "fert",
  "6427": "NavajoĠ",
  "6428": "stemĠcell",
  "6429": "ed.\nTheĠ",
  "6430": "inqu",
  "6431": "ratherĠ",
  "6432": "meanĠ",
  "6433": "dimens",
  "6434": "imagin",
  "6435": "evolutionĠ",
  "6436": "infectedĠ",
  "6437": "instanc",
  "6438": "iveĠandĠ",
  "6439": "-th",
  "6440": "money",
  "6441": "2008Ġ",
  "6442": "waysĠtoĠ",
  "6443": "leaveĠ",
  "6444": "alongĠwithĠ",
  "6445": "eĠthis",
  "6446": "es,ĠwhichĠ",
  "6447": "latestĠ",
  "6448": "miner",
  "6449": "eler",
  "6450": "Well",
  "6451": "Batt",
  "6452": "UnitedĠStates,Ġ",
  "6453": "Ang",
  "6454": "display",
  "6455": "usefulĠ",
  "6456": "match",
  "6457": "mos",
  "6458": "tri",
  "6459": "subsequ",
  "6460": "ais",
  "6461": "(P",
  "6462": "Maryland",
  "6463": "MarylandĠ",
  "6464": "identifi",
  "6465": "eĠsaid",
  "6466": "\nT",
  "6467": "grass",
  "6468": ".”",
  "6469": "largelyĠ",
  "6470": "cohol",
  "6471": "sĠtheyĠ",
  "6472": "himself",
  "6473": "websiteĠ",
  "6474": ".\nWhatĠ",
  "6475": "e.ĠItĠ",
  "6476": "singleĠ",
  "6477": "fast",
  "6478": "strik",
  "6479": "ophy",
  "6480": "such",
  "6481": "ology,Ġ",
  "6482": "frequencyĠ",
  "6483": "eĠtri",
  "6484": "lant",
  "6485": "understandĠtheĠ",
  "6486": "enem",
  "6487": "inducedĠ",
  "6488": "leyĠ",
  "6489": "companiesĠ",
  "6490": "Committ",
  "6491": "nearĠtheĠ",
  "6492": "ashĠ",
  "6493": "unionĠ",
  "6494": "anti",
  "6495": "spreadĠ",
  "6496": "chart",
  "6497": "appoint",
  "6498": "remember",
  "6499": "urbanĠ",
  "6500": "GreekĠ",
  "6501": "aĠforĠ",
  "6502": "consistentĠ",
  "6503": "nic",
  "6504": "ChurchĠ",
  "6505": "partner",
  "6506": "amet",
  "6507": "peopleĠareĠ",
  "6508": "beganĠtoĠ",
  "6509": "inĠitsĠ",
  "6510": "year,Ġ",
  "6511": "advers",
  "6512": "limest",
  "6513": "pac",
  "6514": "SocietyĠ",
  "6515": "e:\n-Ġ",
  "6516": "nutri",
  "6517": "UnitedĠN",
  "6518": "nutrit",
  "6519": "sexualĠ",
  "6520": "povert",
  "6521": "componentĠ",
  "6522": "newsĠ",
  "6523": "oleĠ",
  "6524": "skin",
  "6525": ".ĠNoĠ",
  "6526": "88",
  "6527": "heĠsay",
  "6528": "websit",
  "6529": "aymon",
  "6530": "dietĠ",
  "6531": "Ġcountri",
  "6532": "rick",
  "6533": "hydrogenĠ",
  "6534": "ArcticĠ",
  "6535": "prairieĠ",
  "6536": "ProjectĠ",
  "6537": "CW",
  "6538": "workersĠ",
  "6539": "glucoseĠ",
  "6540": "……",
  "6541": "AlthoughĠ",
  "6542": "orr",
  "6543": "life,Ġ",
  "6544": "ingsĠofĠ",
  "6545": "factĠthatĠ",
  "6546": "e.ĠB",
  "6547": "insteadĠofĠ",
  "6548": "cientistsĠ",
  "6549": "liquidĠ",
  "6550": ":\nTheĠ",
  "6551": "FreeĠ",
  "6552": "initialĠ",
  "6553": "ForĠexample,Ġ",
  "6554": "shift",
  "6555": "requirement",
  "6556": "Stand",
  "6557": "ation.ĠTheĠ",
  "6558": "Auth",
  "6559": "membran",
  "6560": "layerĠ",
  "6561": "acceler",
  "6562": ")ĠtoĠ",
  "6563": "ivalĠ",
  "6564": "edĠitsĠ",
  "6565": "root",
  "6566": "dos",
  "6567": "ation:Ġ",
  "6568": "belowĠtheĠ",
  "6569": "circl",
  "6570": "authorĠ",
  "6571": "presentsĠ",
  "6572": "motiv",
  "6573": "estsĠ",
  "6574": "Council",
  "6575": "clinicalĠ",
  "6576": "Ġthem,Ġ",
  "6577": "eatingĠ",
  "6578": "Ġtransfer",
  "6579": "oneĠtoĠ",
  "6580": "inch",
  "6581": "others",
  "6582": "inputĠ",
  "6583": "pre-",
  "6584": "=Ġ",
  "6585": "2)Ġ",
  "6586": "MS",
  "6587": "wash",
  "6588": "beginĠ",
  "6589": "containingĠ",
  "6590": "iusĠ",
  "6591": "detailedĠ",
  "6592": "ureĠtheĠ",
  "6593": "CE",
  "6594": "pleaseĠ",
  "6595": "RepublicĠ",
  "6596": "Ben",
  "6597": "southernĠ",
  "6598": "Ġtradition",
  "6599": "iouslyĠ",
  "6600": "spl",
  "6601": "phaseĠ",
  "6602": "flood",
  "6603": "unit",
  "6604": "16Ġ",
  "6605": "seriousĠ",
  "6606": "Colorad",
  "6607": "GlobalĠ",
  "6608": "convert",
  "6609": "hythm",
  "6610": "nin",
  "6611": "itĠandĠ",
  "6612": "hundredĠ",
  "6613": "Wild",
  "6614": "plet",
  "6615": "SanĠFranc",
  "6616": "IsĠ",
  "6617": "mainlyĠ",
  "6618": "commit",
  "6619": "cardi",
  "6620": "sed",
  "6621": "substanc",
  "6622": "boil",
  "6623": ".TheĠ",
  "6624": "hugeĠ",
  "6625": "GreenĠ",
  "6626": "ani",
  "6627": "increaseĠinĠ",
  "6628": "moist",
  "6629": "equal",
  "6630": "ruralĠ",
  "6631": "neitherĠ",
  "6632": "candid",
  "6633": "otherap",
  "6634": "Ver",
  "6635": "alternativeĠ",
  "6636": "iot",
  "6637": "deadĠ",
  "6638": "—Ġ“",
  "6639": "carbonĠdi",
  "6640": "85",
  "6641": "MinistryĠofĠ",
  "6642": "e,\n",
  "6643": "congreg",
  "6644": "counsel",
  "6645": "ArabicĠ",
  "6646": "emissivityĠ",
  "6647": "lycop",
  "6648": "bilityĠ",
  "6649": "postĠ",
  "6650": "officialsĠ",
  "6651": "flex",
  "6652": "carry",
  "6653": "otherwiseĠ",
  "6654": "words,Ġ",
  "6655": "itĠis",
  "6656": "distinctĠ",
  "6657": "assign",
  "6658": "inationĠ",
  "6659": ",\"ĠsaidĠ",
  "6660": ".\"\nTheĠ",
  "6661": "usedĠforĠ",
  "6662": "77",
  "6663": "Sw",
  "6664": "remark",
  "6665": "aĠisĠ",
  "6666": "ConventionĠ",
  "6667": "world'sĠ",
  "6668": "1990",
  "6669": "er’sĠ",
  "6670": "nerv",
  "6671": "ates",
  "6672": "depict",
  "6673": "ford",
  "6674": "vo",
  "6675": "yĠorĠ",
  "6676": "gather",
  "6677": "It’sĠ",
  "6678": "e.com",
  "6679": "I’",
  "6680": "eworkĠ",
  "6681": "ively",
  "6682": "diction",
  "6683": "wouldĠnotĠ",
  "6684": "esc",
  "6685": "iaĠ(",
  "6686": "resolv",
  "6687": "aĠL",
  "6688": "seek",
  "6689": "itativeĠ",
  "6690": "progres",
  "6691": "rockĠ",
  "6692": "seemsĠ",
  "6693": "vul",
  "6694": "efficientĠ",
  "6695": "mainten",
  "6696": "footĠ",
  "6697": "atch",
  "6698": "civilĠ",
  "6699": "election",
  "6700": "nothingĠ",
  "6701": "Rich",
  "6702": "northĠ",
  "6703": "president",
  "6704": "piteĠtheĠ",
  "6705": "ey,Ġ",
  "6706": "UnionĠ",
  "6707": "IĠs",
  "6708": "Lord",
  "6709": "appar",
  "6710": "specificallyĠ",
  "6711": "givingĠ",
  "6712": ",ĠforĠ",
  "6713": "shutt",
  "6714": "6.",
  "6715": "beyond",
  "6716": "Refer",
  "6717": "rectĠ",
  "6718": "doubl",
  "6719": "ings.\n",
  "6720": "wrong",
  "6721": "evenĠth",
  "6722": "zero",
  "6723": "Alzheimer'sĠ",
  "6724": "dial",
  "6725": "commiss",
  "6726": "hors",
  "6727": "argetĠ",
  "6728": "kil",
  "6729": "Academ",
  "6730": "bud",
  "6731": "Cast",
  "6732": "electricalĠ",
  "6733": "mort",
  "6734": "s.ĠAĠ",
  "6735": "pregnanc",
  "6736": "accident",
  "6737": "involvedĠinĠtheĠ",
  "6738": "dut",
  "6739": "ho",
  "6740": "regim",
  "6741": "infection",
  "6742": "phosph",
  "6743": "Human",
  "6744": "49",
  "6745": "grain",
  "6746": "potential",
  "6747": "kne",
  "6748": "plasm",
  "6749": "out,Ġ",
  "6750": "ae",
  "6751": "ies,ĠandĠ",
  "6752": "sequenceĠ",
  "6753": "lack",
  "6754": "soldi",
  "6755": ",\"ĠsaysĠ",
  "6756": "opol",
  "6757": "mid-",
  "6758": "preced",
  "6759": "atedĠandĠ",
  "6760": "lookĠatĠ",
  "6761": "doll",
  "6762": "onlin",
  "6763": "halfĠofĠ",
  "6764": "suchĠas",
  "6765": "describedĠ",
  "6766": "ere'sĠ",
  "6767": "esĠsuchĠasĠ",
  "6768": "information,Ġ",
  "6769": "Progr",
  "6770": "stock",
  "6771": "attention",
  "6772": "scenari",
  "6773": "sĠaboutĠ",
  "6774": "Servic",
  "6775": "waterĠandĠ",
  "6776": "incorpor",
  "6777": "createĠaĠ",
  "6778": "WaterĠ",
  "6779": "knowĠthatĠ",
  "6780": "seaĠ",
  "6781": "es.ĠThisĠ",
  "6782": "leaf",
  "6783": "roadĠ",
  "6784": "Center",
  "6785": "ouchĠ",
  "6786": "SO",
  "6787": "couldĠnotĠ",
  "6788": "rapid",
  "6789": "Gar",
  "6790": "molecularĠ",
  "6791": "-ĠandĠ",
  "6792": "wasĠalsoĠ",
  "6793": "William",
  "6794": "LordĠ",
  "6795": "ismĠandĠ",
  "6796": "Pre",
  "6797": "ologyĠandĠ",
  "6798": "ichĠ",
  "6799": "teach",
  "6800": "ingsĠandĠ",
  "6801": "mentĠofĠtheĠ",
  "6802": "ons,Ġ",
  "6803": "encourag",
  "6804": "wereĠt",
  "6805": "Ġtox",
  "6806": "itĠinĠ",
  "6807": "pareĠ",
  "6808": "applicationĠofĠ",
  "6809": "Carolin",
  "6810": "aldĠ",
  "6811": "chlor",
  "6812": "whenĠaĠ",
  "6813": "Lincol",
  "6814": "aĠnumberĠofĠ",
  "6815": "harmon",
  "6816": "honor",
  "6817": "ordinaryĠ",
  "6818": "attackĠ",
  "6819": "ongo",
  "6820": ",Ġ2011",
  "6821": "potat",
  "6822": "constant",
  "6823": "e,ĠorĠ",
  "6824": "hurric",
  "6825": "shor",
  "6826": "forec",
  "6827": "Work",
  "6828": "alon",
  "6829": "becauseĠofĠtheĠ",
  "6830": "attract",
  "6831": "solid",
  "6832": "NGO",
  "6833": "degrad",
  "6834": "fileĠ",
  "6835": "amy",
  "6836": "Greec",
  "6837": "onyĠ",
  "6838": "looksĠ",
  "6839": "Az",
  "6840": "axĠ",
  "6841": "Club",
  "6842": "Are",
  "6843": "urityĠ",
  "6844": "electricityĠ",
  "6845": "conservationĠ",
  "6846": "of\n",
  "6847": "necessaryĠtoĠ",
  "6848": "Ind",
  "6849": "orn",
  "6850": "ago",
  "6851": "inĠtheseĠ",
  "6852": "bloodĠcell",
  "6853": "laidĠ",
  "6854": "winterĠ",
  "6855": "ĠthoughtĠ",
  "6856": "cu",
  "6857": "Add",
  "6858": "icationsĠ",
  "6859": "wound",
  "6860": ".ĠAtĠtheĠ",
  "6861": "Ether",
  "6862": "C,Ġ",
  "6863": "ists,Ġ",
  "6864": "ĠT",
  "6865": "Columb",
  "6866": "medi",
  "6867": "robot",
  "6868": "DayĠ",
  "6869": "butĠtheyĠ",
  "6870": "juvenileĠ",
  "6871": "Vietnam",
  "6872": "RNA",
  "6873": "CDĠ",
  "6874": "dwarf",
  "6875": "Kow",
  "6876": "sandyĠ",
  "6877": "OBCĠ",
  "6878": ",ĠIĠ",
  "6879": "carryĠ",
  "6880": "acy",
  "6881": "sĠforĠtheĠ",
  "6882": "ThomasĠ",
  "6883": "Virgin",
  "6884": "excess",
  "6885": "advoc",
  "6886": "200Ġ",
  "6887": "atĠall",
  "6888": "sufficientĠ",
  "6889": "withoutĠtheĠ",
  "6890": "American",
  "6891": "behindĠ",
  "6892": "s?Ġ",
  "6893": "soci",
  "6894": "sper",
  "6895": "partn",
  "6896": "diff",
  "6897": "UL",
  "6898": "contract",
  "6899": "varyĠ",
  "6900": "conven",
  "6901": "Qual",
  "6902": "Program",
  "6903": "Guid",
  "6904": "internalĠ",
  "6905": "decisionĠ",
  "6906": "SchoolĠofĠ",
  "6907": "eil",
  "6908": "particlesĠ",
  "6909": "upĠandĠ",
  "6910": "SoĠ",
  "6911": "opportunityĠtoĠ",
  "6912": "55",
  "6913": "informationĠaboutĠ",
  "6914": "removeĠ",
  "6915": "syl",
  "6916": "inĠtheĠt",
  "6917": "fasc",
  "6918": "whenĠitĠ",
  "6919": "Del",
  "6920": "IndianĠ",
  "6921": "atesĠtheĠ",
  "6922": "ationsĠtoĠ",
  "6923": "Prev",
  "6924": "esĠasĠ",
  "6925": ".\nToĠ",
  "6926": "following",
  "6927": "elf",
  "6928": "ĠtheirĠownĠ",
  "6929": "uni",
  "6930": "adjust",
  "6931": "ĠthatĠitĠ",
  "6932": "downĠtheĠ",
  "6933": "?\nTheĠ",
  "6934": "yet",
  "6935": "oralĠ",
  "6936": "Econ",
  "6937": "tionĠandĠ",
  "6938": "concre",
  "6939": "alloc",
  "6940": "mindĠ",
  "6941": "moment",
  "6942": "wasĠanĠ",
  "6943": "dipl",
  "6944": "ĠtheoryĠ",
  "6945": "University",
  "6946": "morph",
  "6947": "generateĠ",
  "6948": "’s",
  "6949": "Pi",
  "6950": "edĠforĠtheĠ",
  "6951": "southĠ",
  "6952": "uniqueĠ",
  "6953": "1995",
  "6954": "next",
  "6955": "ifyĠtheĠ",
  "6956": "MET",
  "6957": "canĠcauseĠ",
  "6958": "weeksĠ",
  "6959": "estimatedĠ",
  "6960": "producingĠ",
  "6961": "21Ġ",
  "6962": "nature",
  "6963": "gold",
  "6964": "puls",
  "6965": "s,\"Ġ",
  "6966": "icaĠ",
  "6967": "OneĠofĠtheĠ",
  "6968": "iveĠtoĠ",
  "6969": "father",
  "6970": "district",
  "6971": "shallĠbeĠ",
  "6972": "umul",
  "6973": "conqu",
  "6974": "gleĠ",
  "6975": "meansĠofĠ",
  "6976": "comeĠtoĠ",
  "6977": "%ĠofĠtheĠ",
  "6978": "joy",
  "6979": "lyĠtoĠ",
  "6980": "Surv",
  "6981": "pusĠ",
  "6982": "fireĠ",
  "6983": "p.",
  "6984": "hair",
  "6985": "west",
  "6986": "skyĠ",
  "6987": "insur",
  "6988": "rictĠ",
  "6989": "Cul",
  "6990": "manufactur",
  "6991": "resultedĠinĠ",
  "6992": "civil",
  "6993": "Sup",
  "6994": "ocrac",
  "6995": "CancerĠ",
  "6996": "cross",
  "6997": "aps",
  "6998": "44",
  "6999": "thĠcentury,Ġ",
  "7000": "AmericansĠ",
  "7001": "180",
  "7002": "IsraelĠ",
  "7003": "abbiĠ",
  "7004": "patentĠ",
  "7005": "GameĠ",
  "7006": "wavel",
  "7007": "volt",
  "7008": "faq",
  "7009": "Philadelph",
  "7010": "feature",
  "7011": "essĠandĠ",
  "7012": "speech",
  "7013": ",\"",
  "7014": ",ĠyouĠ",
  "7015": "eparateĠ",
  "7016": "umeĠ",
  "7017": "box",
  "7018": "Ġcre",
  "7019": "Ġman",
  "7020": "Eng",
  "7021": "findingsĠ",
  "7022": "aterial",
  "7023": "reject",
  "7024": "Fin",
  "7025": "solution",
  "7026": "professorĠofĠ",
  "7027": "constantĠ",
  "7028": "enciesĠ",
  "7029": "lun",
  "7030": "instrument",
  "7031": "solar",
  "7032": "artific",
  "7033": "useful",
  "7034": "orĠinĠ",
  "7035": "esĠatĠ",
  "7036": "summerĠ",
  "7037": "solarĠ",
  "7038": "Spec",
  "7039": "excessĠ",
  "7040": "kĠandĠ",
  "7041": "beginn",
  "7042": "answerĠ",
  "7043": "bad",
  "7044": "fastĠ",
  "7045": "butt",
  "7046": "speed",
  "7047": "Diction",
  "7048": "alcohol",
  "7049": "withĠyourĠ",
  "7050": "(theĠ",
  "7051": "associatedĠ",
  "7052": "screenĠ",
  "7053": "ĠtestĠ",
  "7054": "closedĠ",
  "7055": "platform",
  "7056": "exclus",
  "7057": "s.ĠH",
  "7058": "MSĠ",
  "7059": "aelĠ",
  "7060": "window",
  "7061": "rarelyĠ",
  "7062": "\"theĠ",
  "7063": "Ca",
  "7064": "bedĠ",
  "7065": "fact,Ġ",
  "7066": "academicĠ",
  "7067": "ingĠto",
  "7068": "aĠp",
  "7069": "ant,Ġ",
  "7070": "beenĠtheĠ",
  "7071": "ness,Ġ",
  "7072": "fol",
  "7073": "personsĠ",
  "7074": "usĠtheĠ",
  "7075": "Atlant",
  "7076": "isod",
  "7077": "extensiveĠ",
  "7078": "random",
  "7079": "future",
  "7080": "Jes",
  "7081": "ao",
  "7082": "bodiesĠ",
  "7083": "ĠtodayĠ",
  "7084": "Wik",
  "7085": ".org/",
  "7086": "rich",
  "7087": "sendĠ",
  "7088": ",ĠtheirĠ",
  "7089": "push",
  "7090": "Ġcoll",
  "7091": "measurement",
  "7092": "onĠtoĠ",
  "7093": "aqu",
  "7094": "sentenc",
  "7095": "es.ĠS",
  "7096": "1980",
  "7097": "ated,Ġ",
  "7098": "Ren",
  "7099": "formalĠ",
  "7100": "becam",
  "7101": "ionsĠandĠ",
  "7102": "Class",
  "7103": "ecologicalĠ",
  "7104": "inject",
  "7105": "Kans",
  "7106": "spanĠ",
  "7107": "administr",
  "7108": "whatĠtheĠ",
  "7109": "Mont",
  "7110": "78",
  "7111": "Ġtrib",
  "7112": "experiencedĠ",
  "7113": "Pac",
  "7114": "monĠ",
  "7115": "sensitiv",
  "7116": "Mem",
  "7117": "Vis",
  "7118": "baseĠ",
  "7119": "areasĠofĠ",
  "7120": "patchĠ",
  "7121": "storeĠ",
  "7122": "whichĠwasĠ",
  "7123": "inĠB",
  "7124": "coalĠ",
  "7125": "ently,Ġ",
  "7126": "gardenĠ",
  "7127": "eansĠ",
  "7128": "spok",
  "7129": "entire",
  "7130": "athlet",
  "7131": "layĠ",
  "7132": "oyu",
  "7133": "My",
  "7134": "employmentĠ",
  "7135": "lad",
  "7136": "crow",
  "7137": "articlesĠ",
  "7138": "proposedĠ",
  "7139": "extinc",
  "7140": "batter",
  "7141": "ney",
  "7142": "patent",
  "7143": "HC",
  "7144": "steppingĠ",
  "7145": "Phn",
  "7146": "asbest",
  "7147": "ĠthisĠisĠ",
  "7148": "pursu",
  "7149": "eĠtoĠaĠ",
  "7150": "enseĠofĠ",
  "7151": "signĠ",
  "7152": "youĠcan",
  "7153": "ense",
  "7154": "eĠtyp",
  "7155": "ify",
  "7156": "elig",
  "7157": "either",
  "7158": "applicationsĠ",
  "7159": "accessĠ",
  "7160": "aries",
  "7161": "©Ġ",
  "7162": "scaleĠ",
  "7163": "matter",
  "7164": "needĠtoĠbeĠ",
  "7165": "umnĠ",
  "7166": "berri",
  "7167": "AboutĠ",
  "7168": "esĠfromĠtheĠ",
  "7169": "continuesĠtoĠ",
  "7170": "indig",
  "7171": "fightĠ",
  "7172": "crop",
  "7173": "1970",
  "7174": "whoĠhadĠ",
  "7175": "Read",
  "7176": "Ġtext",
  "7177": "exactlyĠ",
  "7178": "iesĠinĠ",
  "7179": "classroom",
  "7180": "EnglandĠ",
  "7181": "ofĠhisĠ",
  "7182": "leĠofĠ",
  "7183": "CourtĠ",
  "7184": "espre",
  "7185": "capitalĠ",
  "7186": "monthĠ",
  "7187": "princip",
  "7188": "@exampl",
  "7189": "explainĠ",
  "7190": "ĠtellĠ",
  "7191": "ableĠofĠ",
  "7192": "inj",
  "7193": "s.ĠM",
  "7194": ".\n-ĠTheĠ",
  "7195": "ĠtowardsĠ",
  "7196": "greatestĠ",
  "7197": "being",
  "7198": "andĠtr",
  "7199": "opportunitiesĠ",
  "7200": "earlierĠ",
  "7201": "Ġtwo",
  "7202": "tion,Ġ",
  "7203": "roop",
  "7204": "95",
  "7205": "likeĠtoĠ",
  "7206": "Mil",
  "7207": "requir",
  "7208": "meaning",
  "7209": "referenc",
  "7210": "hypoth",
  "7211": "rend",
  "7212": "Liter",
  "7213": "\",Ġ",
  "7214": "normallyĠ",
  "7215": "isĠandĠ",
  "7216": "stret",
  "7217": "flyĠ",
  "7218": "elessĠ",
  "7219": "itĠisĠnotĠ",
  "7220": "prett",
  "7221": "ationĠwasĠ",
  "7222": "MuslimsĠ",
  "7223": "ĠtoĠthatĠ",
  "7224": "holid",
  "7225": "East",
  "7226": "destin",
  "7227": "adequateĠ",
  "7228": "ationsĠareĠ",
  "7229": "Post",
  "7230": "structuralĠ",
  "7231": "es,ĠbutĠ",
  "7232": "cordingĠtoĠtheĠ",
  "7233": "intellig",
  "7234": "...Ġ",
  "7235": "imilarĠ",
  "7236": "inĠtheĠsameĠ",
  "7237": "presenceĠofĠ",
  "7238": "Clim",
  "7239": "2)",
  "7240": "ISĠ",
  "7241": "ometim",
  "7242": "realiz",
  "7243": "ingĠhisĠ",
  "7244": "heart",
  "7245": "Project",
  "7246": "its",
  "7247": "eu",
  "7248": "HistoryĠ",
  "7249": "eĠonĠ",
  "7250": "Hon",
  "7251": "milk",
  "7252": "ĠtheĠsameĠ",
  "7253": "river",
  "7254": "emblyĠ",
  "7255": "whetherĠtheĠ",
  "7256": "gayĠ",
  "7257": "abus",
  "7258": "battleĠ",
  "7259": "Mount",
  "7260": "organicĠ",
  "7261": "doesn’tĠ",
  "7262": "500Ġ",
  "7263": "otyp",
  "7264": "exam",
  "7265": "ool",
  "7266": "exposureĠtoĠ",
  "7267": "averag",
  "7268": "RoyalĠ",
  "7269": "ants,Ġ",
  "7270": "staff",
  "7271": "Meteor",
  "7272": "permitt",
  "7273": "spread",
  "7274": "competitionĠ",
  "7275": ".Ġ.Ġ",
  "7276": "eight",
  "7277": "66",
  "7278": "vass",
  "7279": "etĠal.,Ġ",
  "7280": "CD-",
  "7281": "PhnomĠ",
  "7282": "aymond-",
  "7283": "aymond-Wh",
  "7284": "morer",
  "7285": "morerí",
  "7286": "s,\n",
  "7287": "''",
  "7288": "ate",
  "7289": "spentĠ",
  "7290": "ingĠatĠ",
  "7291": "ersĠfromĠ",
  "7292": "lu",
  "7293": "fluid",
  "7294": "usingĠaĠ",
  "7295": ".ĠHowever,ĠtheĠ",
  "7296": ")ĠthatĠ",
  "7297": "sourceĠ",
  "7298": "ĠtrialĠ",
  "7299": "s,ĠincludingĠ",
  "7300": ".ĠEachĠ",
  "7301": "Ġcall",
  "7302": "ersĠhaveĠ",
  "7303": "isĠt",
  "7304": "ous,Ġ",
  "7305": "es.ĠInĠ",
  "7306": "excellentĠ",
  "7307": "Sam",
  "7308": "s.\n\"",
  "7309": "eĠsur",
  "7310": "synth",
  "7311": "esĠonĠtheĠ",
  "7312": ".ĠIt'sĠ",
  "7313": "e.\"\n",
  "7314": "Ġmov",
  "7315": "icalsĠ",
  "7316": "y,ĠbutĠ",
  "7317": "importanceĠofĠ",
  "7318": "roleĠinĠ",
  "7319": "Grad",
  "7320": "alĠofĠtheĠ",
  "7321": "ionĠinĠ",
  "7322": "involvedĠ",
  "7323": "relationshipĠ",
  "7324": "Aut",
  "7325": "inceĠtheĠ",
  "7326": ".g",
  "7327": "ingĠthem",
  "7328": "eros",
  "7329": "itiesĠtoĠ",
  "7330": "ming",
  "7331": "causeĠofĠ",
  "7332": "surger",
  "7333": "speechĠ",
  "7334": "icĠt",
  "7335": "bloodĠpressureĠ",
  "7336": "concep",
  "7337": "insideĠ",
  "7338": "likeĠaĠ",
  "7339": "prepareĠ",
  "7340": "iesĠforĠ",
  "7341": "uscept",
  "7342": "itĠhasĠ",
  "7343": "SouthernĠ",
  "7344": "ionĠisĠ",
  "7345": "nationsĠ",
  "7346": "MiddleĠ",
  "7347": "despiteĠ",
  "7348": "extr",
  "7349": "ace",
  "7350": "sufficient",
  "7351": "halfĠofĠtheĠ",
  "7352": "exchang",
  "7353": "distanceĠ",
  "7354": "destro",
  "7355": "badĠ",
  "7356": "seg",
  "7357": "sĠwillĠ",
  "7358": "witch",
  "7359": "ĠthereĠisĠnoĠ",
  "7360": "wasĠnoĠ",
  "7361": "Mu",
  "7362": "the",
  "7363": "Ari",
  "7364": "bill",
  "7365": "nucle",
  "7366": "eachĠother",
  "7367": "fewerĠ",
  "7368": "orĠmoreĠ",
  "7369": "acre",
  "7370": "\n-ĠTheĠ",
  "7371": "startedĠ",
  "7372": "ouĠ",
  "7373": "CH",
  "7374": "defic",
  "7375": "lym",
  "7376": "clip",
  "7377": "sensoryĠ",
  "7378": "ĠthroughoutĠ",
  "7379": "Ġtran",
  "7380": "Ir",
  "7381": "vastĠ",
  "7382": "uresĠandĠ",
  "7383": "America",
  "7384": "persist",
  "7385": "isĠthatĠtheĠ",
  "7386": "orsĠandĠ",
  "7387": "300",
  "7388": "entr",
  "7389": "ousandĠ",
  "7390": "social",
  "7391": "exerciseĠ",
  "7392": "bust",
  "7393": "ingĠtheĠt",
  "7394": "1)Ġ",
  "7395": "equival",
  "7396": "stateĠofĠ",
  "7397": "mechanicalĠ",
  "7398": "ClickĠ",
  "7399": "chick",
  "7400": "reef",
  "7401": ",ĠtwoĠ",
  "7402": "sĠ-Ġ",
  "7403": "overĠaĠ",
  "7404": "signal",
  "7405": "butter",
  "7406": "Agr",
  "7407": "CON",
  "7408": "witness",
  "7409": "God'sĠ",
  "7410": "PM",
  "7411": "AG",
  "7412": "experimentĠ",
  "7413": "98",
  "7414": "____",
  "7415": "insĠ",
  "7416": "ThatĠ",
  "7417": "West",
  "7418": "poin",
  "7419": "Tu",
  "7420": "42",
  "7421": "askedĠ",
  "7422": "ĠcanĠbeĠ",
  "7423": "diagr",
  "7424": ".ĠHowever",
  "7425": "edĠitĠ",
  "7426": "util",
  "7427": "so,Ġ",
  "7428": "hundredsĠofĠ",
  "7429": "leastĠ",
  "7430": "occursĠ",
  "7431": "poly",
  "7432": "NotĠ",
  "7433": "HaveĠ",
  "7434": "Green",
  "7435": "man,Ġ",
  "7436": "uccess",
  "7437": "massĠ",
  "7438": "utĠtheĠ",
  "7439": "raw",
  "7440": "endĠtheĠ",
  "7441": "cultureĠ",
  "7442": "identifiedĠ",
  "7443": "EachĠ",
  "7444": "onĠofĠ",
  "7445": "ofĠtim",
  "7446": "faith",
  "7447": "healthĠandĠ",
  "7448": "negativ",
  "7449": "critic",
  "7450": "keepĠtheĠ",
  "7451": "thĠcentury",
  "7452": "painĠ",
  "7453": "rateĠofĠ",
  "7454": "magn",
  "7455": "goĠtoĠ",
  "7456": "eĠtimeĠ",
  "7457": "band",
  "7458": "behaviorĠ",
  "7459": ".ĠAccordingĠtoĠ",
  "7460": "involvedĠinĠ",
  "7461": "informationĠonĠ",
  "7462": "mostĠcommonĠ",
  "7463": "mayĠalsoĠ",
  "7464": "balanceĠ",
  "7465": ".ĠWhenĠtheĠ",
  "7466": "easyĠ",
  "7467": "FloridaĠ",
  "7468": "A,Ġ",
  "7469": "ifĠitĠ",
  "7470": "ChapterĠ",
  "7471": "ember",
  "7472": "composedĠ",
  "7473": "latterĠ",
  "7474": "vulner",
  "7475": "management",
  "7476": "SpanishĠ",
  "7477": "Bas",
  "7478": "edĠasĠtheĠ",
  "7479": "ingĠthatĠtheĠ",
  "7480": "wouldĠhaveĠbeenĠ",
  "7481": "ĠturnĠ",
  "7482": "youĠcouldĠ",
  "7483": "episod",
  "7484": "schedul",
  "7485": "factĠ",
  "7486": "blog",
  "7487": "familiarĠ",
  "7488": "ĠthatĠthereĠ",
  "7489": "pest",
  "7490": "God,Ġ",
  "7491": "comfort",
  "7492": "IĠwasĠ",
  "7493": "infra",
  "7494": "successfulĠ",
  "7495": "canĠalsoĠ",
  "7496": "seasonĠ",
  "7497": "choolĠ",
  "7498": "onĠtop",
  "7499": "registr",
  "7500": "withĠanĠ",
  "7501": "patternĠ",
  "7502": "comb",
  "7503": "Princ",
  "7504": "millionĠ",
  "7505": "millionsĠofĠ",
  "7506": "jar",
  "7507": "apprec",
  "7508": "Det",
  "7509": "geneĠ",
  "7510": "peaceĠ",
  "7511": "historicĠ",
  "7512": "decidedĠtoĠ",
  "7513": "gift",
  "7514": "ation,ĠtheĠ",
  "7515": "forĠt",
  "7516": "often",
  "7517": "photograph",
  "7518": "why",
  "7519": "considerableĠ",
  "7520": "showingĠ",
  "7521": "y’sĠ",
  "7522": "RobertĠ",
  "7523": "les,Ġ",
  "7524": "OldĠ",
  "7525": "ĠmembersĠ",
  "7526": "storageĠ",
  "7527": "busĠ",
  "7528": "PowerĠ",
  "7529": "cess",
  "7530": "judicialĠ",
  "7531": "incom",
  "7532": "ings",
  "7533": "displayĠ",
  "7534": "imentsĠ",
  "7535": "sing",
  "7536": "TitleĠ",
  "7537": ".Ġdoi:10.10",
  "7538": "edĠtog",
  "7539": "poor",
  "7540": "meatĠ",
  "7541": "ĠthousandsĠofĠ",
  "7542": "massiveĠ",
  "7543": "razil",
  "7544": "thoughĠtheĠ",
  "7545": "lower",
  "7546": "The",
  "7547": "alph",
  "7548": "absolut",
  "7549": "reproductiveĠ",
  "7550": "station",
  "7551": "CityĠ",
  "7552": "150",
  "7553": "embry",
  "7554": "gli",
  "7555": "anxiet",
  "7556": "hiddenĠ",
  "7557": "populationsĠ",
  "7558": "imprint",
  "7559": "homogen",
  "7560": "Rossi",
  "7561": ",Ġ“",
  "7562": "onlyĠtheĠ",
  "7563": "seen",
  "7564": "long-termĠ",
  "7565": "fundamentalĠ",
  "7566": "instruct",
  "7567": "ionsĠforĠ",
  "7568": "linesĠ",
  "7569": "neuro",
  "7570": "burnĠ",
  "7571": "copyrightĠ",
  "7572": "Fre",
  "7573": ".ĠYouĠcanĠ",
  "7574": "EC",
  "7575": "saltĠ",
  "7576": "aĠlongĠ",
  "7577": "...\n",
  "7578": "impleĠ",
  "7579": "ikeĠ",
  "7580": "deg",
  "7581": "effortsĠtoĠ",
  "7582": "vessel",
  "7583": "behind",
  "7584": "studentsĠtoĠ",
  "7585": "AtĠ",
  "7586": "fillĠ",
  "7587": "menĠandĠ",
  "7588": "howĠmuchĠ",
  "7589": "ĠtrackĠ",
  "7590": "quot",
  "7591": "e.g.Ġ",
  "7592": "andĠisĠ",
  "7593": "DP",
  "7594": "orĠotherĠ",
  "7595": "ured",
  "7596": "SeeĠ",
  "7597": "moder",
  "7598": "eĠthreeĠ",
  "7599": "Mark",
  "7600": "actualĠ",
  "7601": "aband",
  "7602": "eĠsay",
  "7603": "ationĠbetweenĠ",
  "7604": "diplomat",
  "7605": "inĠourĠ",
  "7606": "sĠthisĠ",
  "7607": "perfectĠ",
  "7608": ".\nInĠtheĠ",
  "7609": "city",
  "7610": "merg",
  "7611": "later,Ġ",
  "7612": "eableĠ",
  "7613": "passedĠ",
  "7614": "allowedĠtoĠ",
  "7615": "Gard",
  "7616": "Hay",
  "7617": "ingĠitsĠ",
  "7618": "supplyĠ",
  "7619": "seaĠsur",
  "7620": "2,",
  "7621": "mamm",
  "7622": "300Ġ",
  "7623": "several",
  "7624": "satis",
  "7625": "butĠalsoĠ",
  "7626": "atory",
  "7627": "someĠofĠ",
  "7628": "inhabit",
  "7629": "originallyĠ",
  "7630": "movingĠ",
  "7631": "ortĠofĠ",
  "7632": "video",
  "7633": "disease,Ġ",
  "7634": "contemporaryĠ",
  "7635": "refug",
  "7636": "everth",
  "7637": "usedĠinĠtheĠ",
  "7638": "Mal",
  "7639": "curv",
  "7640": "obtain",
  "7641": "Labor",
  "7642": "urrentĠ",
  "7643": "fishingĠ",
  "7644": "attentionĠ",
  "7645": "handl",
  "7646": "RC",
  "7647": "hazard",
  "7648": "\nth",
  "7649": "iffĠ",
  "7650": "ascularĠ",
  "7651": ".ĠWithĠ",
  "7652": "agon",
  "7653": "olineĠ",
  "7654": "garden",
  "7655": "ingĠtheseĠ",
  "7656": "middleĠ",
  "7657": "certainlyĠ",
  "7658": "alĠ(",
  "7659": "umorĠ",
  "7660": "ingĠfromĠtheĠ",
  "7661": "depth",
  "7662": "majorityĠofĠ",
  "7663": "corn",
  "7664": "discipl",
  "7665": "weapon",
  "7666": "onĠS",
  "7667": "Kore",
  "7668": "outat",
  "7669": "rotorĠ",
  "7670": "luck",
  "7671": "north-",
  "7672": "MudejarsĠ",
  "7673": "Abdall",
  "7674": "agnat",
  "7675": "worthĠ",
  "7676": ",ĠwasĠ",
  "7677": "Congres",
  "7678": "presidentĠ",
  "7679": "Stre",
  "7680": "concernĠ",
  "7681": "ĠtoĠmakeĠ",
  "7682": "hood",
  "7683": "nineĠ",
  "7684": "fold",
  "7685": "alizedĠ",
  "7686": "whoĠisĠ",
  "7687": "alg",
  "7688": "article",
  "7689": "experimentalĠ",
  "7690": "can'tĠ",
  "7691": "agreementĠ",
  "7692": "asĠinĠ",
  "7693": "allĠc",
  "7694": "evenĠmoreĠ",
  "7695": "company",
  "7696": "differencesĠ",
  "7697": "ages",
  "7698": "consult",
  "7699": "Engine",
  "7700": "world,Ġ",
  "7701": "wantedĠtoĠ",
  "7702": "es.ĠA",
  "7703": "10-",
  "7704": "Observ",
  "7705": "degreeĠ",
  "7706": "artificialĠ",
  "7707": "launchĠ",
  "7708": "huntingĠ",
  "7709": "COĠ",
  "7710": "Expl",
  "7711": "ipul",
  "7712": "statement",
  "7713": "inhibit",
  "7714": "UsingĠ",
  "7715": "graph",
  "7716": "continuedĠ",
  "7717": "le-",
  "7718": "UseĠ",
  "7719": "thod",
  "7720": "cript",
  "7721": "reasonsĠ",
  "7722": "preval",
  "7723": "thirdĠ",
  "7724": "pictureĠ",
  "7725": ".gov",
  "7726": "ss",
  "7727": "California,Ġ",
  "7728": "urt",
  "7729": "’t",
  "7730": "cruc",
  "7731": "PleaseĠ",
  "7732": "400",
  "7733": "walk",
  "7734": "INGĠ",
  "7735": "drinkingĠ",
  "7736": "understandingĠ",
  "7737": "muchĠmoreĠ",
  "7738": "study,Ġ",
  "7739": "pathĠ",
  "7740": "yourĠchildĠ",
  "7741": "i.e.",
  "7742": "performĠ",
  "7743": "relationsĠ",
  "7744": ".\n2",
  "7745": "ingĠ(",
  "7746": "Clin",
  "7747": "Spr",
  "7748": "ensureĠ",
  "7749": "fif",
  "7750": "\"th",
  "7751": "Emp",
  "7752": "along",
  "7753": ".ĠItsĠ",
  "7754": "ofĠthis",
  "7755": "constructionĠ",
  "7756": "ĠthroughĠaĠ",
  "7757": "Ġtour",
  "7758": "eam",
  "7759": "materialsĠ",
  "7760": "improvedĠ",
  "7761": "(N",
  "7762": "billion",
  "7763": "goneĠ",
  "7764": "inde",
  "7765": "moreĠthan",
  "7766": "ĠmanyĠ",
  "7767": "prettyĠ",
  "7768": "easyĠtoĠ",
  "7769": "corrup",
  "7770": ",ĠitĠisĠ",
  "7771": "Ġtransl",
  "7772": "scar",
  "7773": "story",
  "7774": "itiesĠofĠ",
  "7775": "unitĠ",
  "7776": "loyalt",
  "7777": "whichĠtheyĠ",
  "7778": "serveĠ",
  "7779": "reviewĠ",
  "7780": "refin",
  "7781": "fuelĠ",
  "7782": "generationĠ",
  "7783": "sĠhaveĠbeenĠ",
  "7784": "EM",
  "7785": "abul",
  "7786": "Star",
  "7787": "anaĠ",
  "7788": "naturallyĠ",
  "7789": ".com/",
  "7790": "allĠm",
  "7791": "s,ĠtheyĠ",
  "7792": "lak",
  "7793": "atĠanĠ",
  "7794": "responsibil",
  "7795": "asĠwellĠasĠtheĠ",
  "7796": "immuneĠ",
  "7797": "neuron",
  "7798": "struggleĠ",
  "7799": "Anton",
  "7800": "killedĠ",
  "7801": "riverĠ",
  "7802": "ĠF",
  "7803": "Consid",
  "7804": "s.ĠIn",
  "7805": "camer",
  "7806": "paper",
  "7807": "isticsĠ",
  "7808": "ThereĠ",
  "7809": "aboutĠthisĠ",
  "7810": "estedĠ",
  "7811": "fresh",
  "7812": "LifeĠ",
  "7813": "landscap",
  "7814": "uelĠ",
  "7815": "SocialĠ",
  "7816": "ical,Ġ",
  "7817": "68",
  "7818": "KD",
  "7819": "extens",
  "7820": "juris",
  "7821": "formationĠofĠ",
  "7822": "drom",
  "7823": "standsĠ",
  "7824": "WhiteĠ",
  "7825": "abund",
  "7826": "uit",
  "7827": "sĠareĠnotĠ",
  "7828": "Cert",
  "7829": "Ġtogether",
  "7830": "desc",
  "7831": "IP",
  "7832": "es,ĠsuchĠasĠ",
  "7833": "ietĠ",
  "7834": "Cumber",
  "7835": "Ocean",
  "7836": "eles",
  "7837": "ounter",
  "7838": "rhetor",
  "7839": "supplement",
  "7840": ".ĠtheĠ",
  "7841": "Charlott",
  "7842": "artis",
  "7843": "e,”Ġ",
  "7844": "Church",
  "7845": "believeĠthatĠ",
  "7846": "hadĠnoĠ",
  "7847": "Publish",
  "7848": "60Ġ",
  "7849": "forĠeachĠ",
  "7850": ".ĠOnĠtheĠ",
  "7851": "Creat",
  "7852": "WindowsĠ",
  "7853": "application",
  "7854": "enseĠ",
  "7855": "sim",
  "7856": "s.ĠHowever,Ġ",
  "7857": "externalĠ",
  "7858": "haveĠanĠ",
  "7859": "additionĠtoĠ",
  "7860": "1997",
  "7861": "publishedĠinĠ",
  "7862": "helpĠtoĠ",
  "7863": "leadingĠtoĠ",
  "7864": "film",
  "7865": "bacteriaĠ",
  "7866": "izeĠtheĠ",
  "7867": "ĠthereforeĠ",
  "7868": "edĠout",
  "7869": "ThisĠisĠ",
  "7870": "song",
  "7871": "Hel",
  "7872": "ivingĠ",
  "7873": "hasĠalsoĠ",
  "7874": "eĠthatĠisĠ",
  "7875": "teamĠ",
  "7876": "brokenĠ",
  "7877": "Penn",
  "7878": "sylvan",
  "7879": "directorĠofĠtheĠ",
  "7880": "islandĠ",
  "7881": "onn",
  "7882": "knewĠ",
  "7883": "aĠmanĠ",
  "7884": "widespre",
  "7885": "es—",
  "7886": "legisl",
  "7887": "maleĠ",
  "7888": "Comp",
  "7889": "devot",
  "7890": "loom",
  "7891": "affectedĠ",
  "7892": "awaren",
  "7893": "studyĠofĠ",
  "7894": "desir",
  "7895": "runn",
  "7896": "ously",
  "7897": "and-",
  "7898": "ed.\n-Ġ",
  "7899": "Rem",
  "7900": "oveĠ",
  "7901": "door",
  "7902": "followĠ",
  "7903": "What",
  "7904": "measuresĠ",
  "7905": "recordedĠ",
  "7906": "unableĠtoĠ",
  "7907": ".ĠPh",
  "7908": "Washington,Ġ",
  "7909": "numer",
  "7910": "cases,Ġ",
  "7911": "e.\"Ġ",
  "7912": "ers'Ġ",
  "7913": "Administ",
  "7914": "stay",
  "7915": "ran",
  "7916": "imilar",
  "7917": "magneticĠ",
  "7918": "printĠ",
  "7919": "Gall",
  "7920": "Sum",
  "7921": "enĠofĠ",
  "7922": "friendlyĠ",
  "7923": "e”",
  "7924": "\nB",
  "7925": "iped",
  "7926": "manyĠofĠtheĠ",
  "7927": "Day",
  "7928": "Ġsm",
  "7929": "merelyĠ",
  "7930": "punish",
  "7931": "Ġthen",
  "7932": "ĠthusĠ",
  "7933": ".)\n",
  "7934": "elineĠ",
  "7935": "crew",
  "7936": "includeĠtheĠ",
  "7937": "LakeĠ",
  "7938": "stoneĠ",
  "7939": "andĠC",
  "7940": "secondaryĠ",
  "7941": "verb",
  "7942": "19Ġ",
  "7943": "onlyĠoneĠ",
  "7944": "describeĠ",
  "7945": ".\nG",
  "7946": "electedĠ",
  "7947": "immuneĠsystem",
  "7948": "ĠtypeĠ",
  "7949": "year-oldĠ",
  "7950": "vic",
  "7951": "Sy",
  "7952": "elep",
  "7953": "gott",
  "7954": "esis",
  "7955": "ageĠinĠ",
  "7956": "Sun",
  "7957": "icid",
  "7958": "interestingĠ",
  "7959": "laĠ",
  "7960": "ed-",
  "7961": "ĠthatĠaĠ",
  "7962": "RiverĠ",
  "7963": "photoĠ",
  "7964": "osc",
  "7965": "stak",
  "7966": "sizeĠ",
  "7967": "areĠt",
  "7968": "MillerĠ",
  "7969": "dict",
  "7970": "97",
  "7971": "PacificĠ",
  "7972": "ed;Ġ",
  "7973": "changesĠinĠ",
  "7974": "NowĠ",
  "7975": "odyĠ",
  "7976": "sourceĠofĠ",
  "7977": "circul",
  "7978": "CanĠ",
  "7979": "entryĠ",
  "7980": "Pow",
  "7981": "rav",
  "7982": ".M",
  "7983": "onesĠ",
  "7984": "affair",
  "7985": "Organiz",
  "7986": "CI",
  "7987": "icsĠofĠ",
  "7988": "biodivers",
  "7989": "EducationĠ",
  "7990": "entirelyĠ",
  "7991": "backgroundĠ",
  "7992": ",ĠwhileĠ",
  "7993": "TanzaniaĠ",
  "7994": ",ĠW",
  "7995": ".ĠEvenĠ",
  "7996": "symptomsĠ",
  "7997": "pharmac",
  "7998": "Philosoph",
  "7999": "demandĠ",
  "8000": "Naz",
  "8001": "ism,Ġ",
  "8002": "e,ĠtheyĠ",
  "8003": "ius",
  "8004": "glob",
  "8005": "failureĠ",
  "8006": "physi",
  "8007": "Hebre",
  "8008": "physicianĠ",
  "8009": "saveĠ",
  "8010": "pressureĠtreatmentĠ",
  "8011": "Jonah",
  "8012": "Ġtrigg",
  "8013": "Yu",
  "8014": "aĠK",
  "8015": "HGF",
  "8016": "bail",
  "8017": "BrownĠ",
  "8018": "ilig",
  "8019": "JewsĠwereĠ",
  "8020": "naiĠ",
  "8021": "LoliondoĠ",
  "8022": "UNCL",
  "8023": "placesĠ",
  "8024": "quit",
  "8025": "ryĠandĠ",
  "8026": "heardĠ",
  "8027": "iatricĠ",
  "8028": "ricul",
  "8029": "ĠtoldĠ",
  "8030": "understandingĠofĠ",
  "8031": "somewhatĠ",
  "8032": "eseĠt",
  "8033": "buyĠ",
  "8034": "exception",
  "8035": "ersĠcanĠ",
  "8036": "uel",
  "8037": "lifeĠandĠ",
  "8038": "accomplish",
  "8039": "olecul",
  "8040": "JustĠ",
  "8041": "en'sĠ",
  "8042": "ericĠ",
  "8043": "jointĠ",
  "8044": "Mer",
  "8045": "Bol",
  "8046": "ofĠitsĠ",
  "8047": "colle",
  "8048": "productionĠofĠ",
  "8049": "From",
  "8050": "oudĠ",
  "8051": "?ĠWhatĠ",
  "8052": "CatholicĠ",
  "8053": "daughterĠ",
  "8054": "aged",
  "8055": "epid",
  "8056": "Hind",
  "8057": "undert",
  "8058": "edĠthroughĠtheĠ",
  "8059": "natureĠofĠ",
  "8060": "vision",
  "8061": "ologistĠ",
  "8062": "eĠthoseĠ",
  "8063": "NativeĠ",
  "8064": "e.ĠButĠ",
  "8065": "backĠtoĠtheĠ",
  "8066": ".\nIfĠ",
  "8067": ")\nTheĠ",
  "8068": "eck",
  "8069": "exĠ",
  "8070": "whenĠheĠ",
  "8071": "prior",
  "8072": "Sar",
  "8073": "Pt",
  "8074": "ically,Ġ",
  "8075": "+Ġ",
  "8076": "45Ġ",
  "8077": "withĠhisĠ",
  "8078": "dominantĠ",
  "8079": "chanc",
  "8080": "chronicĠ",
  "8081": "adi",
  "8082": "equipmentĠ",
  "8083": "education",
  "8084": "projectsĠ",
  "8085": "ofĠtr",
  "8086": "s.ĠHeĠ",
  "8087": ".ĠSinceĠ",
  "8088": "ifĠweĠ",
  "8089": "whatĠweĠ",
  "8090": "perceiv",
  "8091": "memor",
  "8092": "ires",
  "8093": "concret",
  "8094": "haveĠt",
  "8095": "combinationĠofĠ",
  "8096": "ingĠupĠ",
  "8097": "atĠtheĠsameĠtim",
  "8098": "ĠthatĠtheseĠ",
  "8099": "FromĠ",
  "8100": "protection",
  "8101": "aĠtim",
  "8102": "solidĠ",
  "8103": "ist,Ġ",
  "8104": "conflictĠ",
  "8105": "seekĠ",
  "8106": "ĠmustĠ",
  "8107": "rationalĠ",
  "8108": ".\nW",
  "8109": "bridgeĠ",
  "8110": "e.\nInĠ",
  "8111": "course,Ġ",
  "8112": "Gold",
  "8113": "ingĠwithĠtheĠ",
  "8114": "aĠinĠ",
  "8115": "beginningĠofĠtheĠ",
  "8116": "e”Ġ",
  "8117": "faithĠ",
  "8118": "channel",
  "8119": "Sk",
  "8120": "asĠpossibl",
  "8121": "MexicoĠ",
  "8122": "CentralĠ",
  "8123": "reducingĠ",
  "8124": "airedĠ",
  "8125": "ĠtransportĠ",
  "8126": "Lear",
  "8127": "2006Ġ",
  "8128": "subjectĠtoĠ",
  "8129": "meansĠthatĠ",
  "8130": "electronĠ",
  "8131": "positiv",
  "8132": "wentĠtoĠ",
  "8133": "CO2Ġ",
  "8134": "ClimateĠ",
  "8135": "resultĠinĠ",
  "8136": "asĠandĠ",
  "8137": "ParkĠ",
  "8138": "mother",
  "8139": "IE",
  "8140": "Artic",
  "8141": "inĠ(",
  "8142": "full-",
  "8143": "protocol",
  "8144": "didn'tĠ",
  "8145": "Ġtrial",
  "8146": "Plan",
  "8147": "obtainedĠ",
  "8148": "post-",
  "8149": "okeĠ",
  "8150": "Hill",
  "8151": "instance,Ġ",
  "8152": "Mov",
  "8153": "WildlifeĠ",
  "8154": "conver",
  "8155": "ArtĠ",
  "8156": "abandon",
  "8157": "criminalĠ",
  "8158": "Ottom",
  "8159": "lengthĠ",
  "8160": "s.Ġ“",
  "8161": "armĠ",
  "8162": "noĠlongerĠ",
  "8163": "Ox",
  "8164": "council",
  "8165": "more\n",
  "8166": "regularlyĠ",
  "8167": "remainingĠ",
  "8168": "edĠupĠ",
  "8169": "UnitedĠNationsĠ",
  "8170": "youth",
  "8171": "Reserv",
  "8172": "peopleĠtoĠ",
  "8173": "ethn",
  "8174": "townĠ",
  "8175": "bord",
  "8176": "Vill",
  "8177": "equallyĠ",
  "8178": "basisĠofĠ",
  "8179": "establishĠ",
  "8180": "sizeĠofĠ",
  "8181": "exceptĠ",
  "8182": "umn",
  "8183": "rareĠ",
  "8184": "expertĠ",
  "8185": "resolutionĠ",
  "8186": "SP",
  "8187": "interactionĠ",
  "8188": "partsĠofĠ",
  "8189": "Imag",
  "8190": "liesĠ",
  "8191": "ird",
  "8192": "calciumĠ",
  "8193": "lact",
  "8194": "oglob",
  "8195": "iy",
  "8196": "withdraw",
  "8197": "itimeĠ",
  "8198": "bak",
  "8199": "provis",
  "8200": "Toutat",
  "8201": "orqu",
  "8202": "’naiĠ",
  "8203": "KhmerĠ",
  "8204": "ongor",
  "8205": "Maas",
  "8206": "IG.Ġ",
  "8207": "fatherĠ",
  "8208": ".\nWhenĠ",
  "8209": "lect",
  "8210": "photo",
  "8211": "anchĠ",
  "8212": "obes",
  "8213": "underlyingĠ",
  "8214": "fieldĠofĠ",
  "8215": "e,ĠtoĠ",
  "8216": "ed,ĠorĠ",
  "8217": "Lic",
  "8218": "ooĠ",
  "8219": "Ġthey'reĠ",
  "8220": "expectedĠtoĠ",
  "8221": "inĠterm",
  "8222": "otherĠhand",
  "8223": "howĠmanyĠ",
  "8224": "PD",
  "8225": "expens",
  "8226": "ationsĠthatĠ",
  "8227": "echnologyĠ",
  "8228": "2009Ġ",
  "8229": "integratedĠ",
  "8230": "desal",
  "8231": "y,ĠwhichĠ",
  "8232": "compos",
  "8233": "kel",
  "8234": "warmĠ",
  "8235": "(L",
  "8236": "outsideĠtheĠ",
  "8237": "itz",
  "8238": "showedĠthatĠ",
  "8239": "X-",
  "8240": "compound",
  "8241": "Lang",
  "8242": "cameĠtoĠ",
  "8243": "gradeĠ",
  "8244": "families",
  "8245": "aboutĠhowĠ",
  "8246": "attitud",
  "8247": "orĠherĠ",
  "8248": "aĠR",
  "8249": "evidenceĠofĠ",
  "8250": "C)Ġ",
  "8251": "work,Ġ",
  "8252": "nearbyĠ",
  "8253": "Ġtransplant",
  "8254": ")Ġs",
  "8255": "etter",
  "8256": "eĠfromĠ",
  "8257": "Ġthemselves",
  "8258": "doubt",
  "8259": "ivityĠ",
  "8260": "figure",
  "8261": "miceĠ",
  "8262": "orĠevenĠ",
  "8263": "Out",
  "8264": "controlĠofĠ",
  "8265": "ChildrenĠ",
  "8266": "rapidĠ",
  "8267": "especi",
  "8268": "utiliz",
  "8269": "74",
  "8270": "s.ĠT",
  "8271": "addressĠ",
  "8272": "areaĠofĠ",
  "8273": "provideĠaĠ",
  "8274": "solutionĠ",
  "8275": "\nD",
  "8276": "mouth",
  "8277": "yourĠdoctorĠ",
  "8278": "operateĠ",
  "8279": "conductĠ",
  "8280": "plent",
  "8281": "AfterĠ",
  "8282": "icit",
  "8283": "sĠwhichĠ",
  "8284": "statementĠ",
  "8285": "High",
  "8286": "changingĠ",
  "8287": "breedingĠ",
  "8288": "beyondĠ",
  "8289": "secret",
  "8290": "Illin",
  "8291": "Illino",
  "8292": "ĠtravelĠ",
  "8293": "junctionĠ",
  "8294": "ating",
  "8295": "physicalĠactivityĠ",
  "8296": "usionĠ",
  "8297": "faster",
  "8298": "stretch",
  "8299": "disturb",
  "8300": "ĠthoseĠofĠ",
  "8301": "lesĠandĠ",
  "8302": "ality",
  "8303": "context",
  "8304": ".ĠOtherĠ",
  "8305": "worship",
  "8306": "firstĠtim",
  "8307": "freshĠ",
  "8308": "utter",
  "8309": ",ĠthereĠisĠ",
  "8310": "Me",
  "8311": "bring",
  "8312": "adher",
  "8313": "oilĠandĠ",
  "8314": "shoreĠ",
  "8315": "uct",
  "8316": "delay",
  "8317": "Louis",
  "8318": "IslandĠ",
  "8319": "70Ġ",
  "8320": "colorsĠ",
  "8321": "virtuallyĠ",
  "8322": "ly,ĠtheĠ",
  "8323": "measureĠ",
  "8324": "spons",
  "8325": "Fam",
  "8326": "Ġcaus",
  "8327": "upĠtoĠtheĠ",
  "8328": "ĠthatĠareĠ",
  "8329": "s.ĠIfĠ",
  "8330": "howĠtheyĠ",
  "8331": "och",
  "8332": "sist",
  "8333": "Pan",
  "8334": "amountsĠofĠ",
  "8335": "distanc",
  "8336": "upt",
  "8337": "kis",
  "8338": "goingĠtoĠbeĠ",
  "8339": "muchĠofĠtheĠ",
  "8340": "ĠwasĠ",
  "8341": "Mach",
  "8342": "IĠthinkĠ",
  "8343": "rein",
  "8344": "learning",
  "8345": "instruction",
  "8346": "brightĠ",
  "8347": "dent",
  "8348": "modul",
  "8349": "drivenĠ",
  "8350": "permit",
  "8351": "libraryĠ",
  "8352": "NewĠYork,Ġ",
  "8353": "promin",
  "8354": "RussiaĠ",
  "8355": "species,Ġ",
  "8356": "expectedĠ",
  "8357": "appliedĠ",
  "8358": "tionsĠ",
  "8359": "s.\nS",
  "8360": "inessĠ",
  "8361": "pregnantĠ",
  "8362": "landĠandĠ",
  "8363": "Lif",
  "8364": "Nic",
  "8365": "catal",
  "8366": "byĠ20",
  "8367": "CouncilĠ",
  "8368": "birdsĠ",
  "8369": "ognitiveĠ",
  "8370": "eticalĠ",
  "8371": "ilater",
  "8372": "ĠtenĠ",
  "8373": "ookingĠ",
  "8374": "euticĠ",
  "8375": "moreĠlikelyĠtoĠ",
  "8376": "y\n-Ġ",
  "8377": "is\n",
  "8378": "resultingĠ",
  "8379": "gly",
  "8380": "NewĠZ",
  "8381": "NewĠZeal",
  "8382": ",ĠtoĠtheĠ",
  "8383": "compris",
  "8384": "ĠtechnologiesĠ",
  "8385": "Pic",
  "8386": "stressĠ",
  "8387": "CivilĠWarĠ",
  "8388": "0-",
  "8389": "yro",
  "8390": "substitut",
  "8391": "TradeĠ",
  "8392": "ularĠm",
  "8393": "genesĠ",
  "8394": "stronglyĠ",
  "8395": "azar",
  "8396": "epat",
  "8397": "Ġsign",
  "8398": "Encycl",
  "8399": "HungarianĠ",
  "8400": "emak",
  "8401": "gorongor",
  "8402": "FIG.Ġ",
  "8403": "AzmetĠ",
  "8404": "e.ĠIn",
  "8405": "Ġsay",
  "8406": "repl",
  "8407": "retĠ",
  "8408": "Mass",
  "8409": "NationalĠInstitut",
  "8410": "dangerousĠ",
  "8411": "climb",
  "8412": ".ĠAr",
  "8413": "evolutionaryĠ",
  "8414": "wayĠthatĠ",
  "8415": "protectedĠ",
  "8416": ",Ġ2009",
  "8417": "Cat",
  "8418": "Ġthat'sĠ",
  "8419": "orsĠofĠ",
  "8420": ".\nE",
  "8421": "obtainĠ",
  "8422": "Su",
  "8423": ",ĠandĠaĠ",
  "8424": "ibil",
  "8425": "connection",
  "8426": "administrat",
  "8427": "youĠmightĠ",
  "8428": ".ĠFurther",
  "8429": "Author",
  "8430": "merc",
  "8431": "isedĠ",
  "8432": "reactionĠ",
  "8433": "carriedĠoutĠ",
  "8434": "spot",
  "8435": "er.ĠTheĠ",
  "8436": "chemicalsĠ",
  "8437": "lotsĠofĠ",
  "8438": "fiv",
  "8439": "craft",
  "8440": "orbit",
  "8441": "atmosphereĠ",
  "8442": "isĠveryĠ",
  "8443": "supportĠtheĠ",
  "8444": "ander",
  "8445": "colleagu",
  "8446": "enceĠofĠtheĠ",
  "8447": "sawĠ",
  "8448": "pher",
  "8449": "linksĠ",
  "8450": "Pri",
  "8451": "itim",
  "8452": "documentsĠ",
  "8453": "23Ġ",
  "8454": "genet",
  "8455": "80Ġ",
  "8456": ".\nButĠ",
  "8457": "ately,Ġ",
  "8458": "Report",
  "8459": "referenceĠ",
  "8460": "bes",
  "8461": "sugarĠ",
  "8462": ".\nAl",
  "8463": "likely",
  "8464": "confid",
  "8465": "yĠtoĠtheĠ",
  "8466": "visionĠ",
  "8467": "s.ĠSomeĠ",
  "8468": "ableĠandĠ",
  "8469": "willĠhelpĠ",
  "8470": "observedĠ",
  "8471": "iffer",
  "8472": "strikeĠ",
  "8473": "stormĠ",
  "8474": "description",
  "8475": "e.ĠWeĠ",
  "8476": "conscious",
  "8477": ".;Ġ",
  "8478": "chapterĠ",
  "8479": "s,ĠasĠ",
  "8480": "gain",
  "8481": "analysis",
  "8482": "ifyingĠ",
  "8483": "agog",
  "8484": "excit",
  "8485": "A)Ġ",
  "8486": "gap",
  "8487": "WhenĠtheĠ",
  "8488": "ittingĠ",
  "8489": "creatingĠ",
  "8490": "satell",
  "8491": "oneĠofĠtheĠmostĠ",
  "8492": "privil",
  "8493": "privileg",
  "8494": "e.ĠHeĠ",
  "8495": "gav",
  "8496": "wasĠinĠ",
  "8497": "ictionĠ",
  "8498": "existĠ",
  "8499": "possiblyĠ",
  "8500": "resultingĠinĠ",
  "8501": "liber",
  "8502": "exploit",
  "8503": "morningĠ",
  "8504": "upĠofĠ",
  "8505": "”Ġ(",
  "8506": "burningĠ",
  "8507": "ofĠthem",
  "8508": "surroundingĠ",
  "8509": "aĠgreatĠ",
  "8510": "ypicalĠ",
  "8511": ".\nItĠ",
  "8512": "Arizon",
  "8513": "measures",
  "8514": "·Ġ",
  "8515": "whereasĠ",
  "8516": "obviousĠ",
  "8517": "acoust",
  "8518": "recip",
  "8519": "olarĠ",
  "8520": "finish",
  "8521": "numb",
  "8522": "featuresĠ",
  "8523": "vaccineĠ",
  "8524": "dement",
  "8525": "navig",
  "8526": "diedĠ",
  "8527": "Frank",
  "8528": "andĠhisĠ",
  "8529": "feet",
  "8530": "eĠinĠaĠ",
  "8531": "determineĠtheĠ",
  "8532": "however,ĠtheĠ",
  "8533": "processesĠ",
  "8534": "oubl",
  "8535": ".ĠFor",
  "8536": "leepĠ",
  "8537": "CommissionĠ",
  "8538": "22Ġ",
  "8539": "fragment",
  "8540": "getĠtoĠ",
  "8541": "irc",
  "8542": "sĠintoĠ",
  "8543": "diseasesĠ",
  "8544": "carbonĠmon",
  "8545": "riev",
  "8546": "Ġtheor",
  "8547": "CountyĠ",
  "8548": "guarant",
  "8549": "controlledĠ",
  "8550": "gym",
  "8551": "DevelopmentĠ",
  "8552": "chip",
  "8553": "bullyingĠ",
  "8554": "HAĠ",
  "8555": "culture",
  "8556": "sham",
  "8557": "shĠ",
  "8558": ",ĠJ",
  "8559": "potato",
  "8560": "opath",
  "8561": "BlackĠ",
  "8562": "Hav",
  "8563": "cav",
  "8564": "emphasisĠ",
  "8565": "||3",
  "8566": "amentĠ",
  "8567": "itĠcanĠ",
  "8568": "becomeĠtheĠ",
  "8569": "biologyĠ",
  "8570": "HP",
  "8571": "acĠ",
  "8572": "media",
  "8573": "bank",
  "8574": "Gran",
  "8575": "fro",
  "8576": "Jewish",
  "8577": "s:\n-Ġ",
  "8578": "CIT",
  "8579": "Mur",
  "8580": "Dy",
  "8581": "roleĠofĠ",
  "8582": "beach",
  "8583": "UA",
  "8584": "roscop",
  "8585": "nan",
  "8586": "hearingĠ",
  "8587": "clon",
  "8588": "CulinaryĠ",
  "8589": "scholar",
  "8590": "inventionĠ",
  "8591": "Ib",
  "8592": "Zion",
  "8593": "Ngorongor",
  "8594": "section-",
  "8595": "asbestosĠ",
  "8596": "Raymond-Wh",
  "8597": "faqi",
  "8598": "aĠlevel",
  "8599": "pointĠofĠ",
  "8600": "excessiveĠ",
  "8601": "Ġtimes",
  "8602": "Ġtouch",
  "8603": "Spe",
  "8604": "producesĠ",
  "8605": "sell",
  "8606": "eĠtooĠ",
  "8607": "seemĠtoĠ",
  "8608": "fineĠ",
  "8609": "ers\n",
  "8610": "agreement",
  "8611": "eĠsoftwareĠ",
  "8612": "differenceĠbetweenĠ",
  "8613": "OpenĠ",
  "8614": "sĠthroughĠ",
  "8615": "ĠmightĠ",
  "8616": "CAL",
  "8617": "basisĠ",
  "8618": "forĠmoreĠ",
  "8619": "useĠaĠ",
  "8620": "system,Ġ",
  "8621": "HenryĠ",
  "8622": "ickn",
  "8623": "olecularĠ",
  "8624": ".Ġ\"TheĠ",
  "8625": "ecr",
  "8626": "fortĠ",
  "8627": "instrumentĠ",
  "8628": ".\nForĠ",
  "8629": "amend",
  "8630": "indigenousĠ",
  "8631": "31Ġ",
  "8632": "ledĠbyĠ",
  "8633": "Pennsylvan",
  "8634": ".ĠDuringĠtheĠ",
  "8635": "disappear",
  "8636": "refr",
  "8637": "knowledgeĠofĠ",
  "8638": "th-",
  "8639": "upĠinĠ",
  "8640": "increaseĠtheĠ",
  "8641": "SaintĠ",
  "8642": "though",
  "8643": "threeĠ",
  "8644": "effortĠtoĠ",
  "8645": "didĠtheĠ",
  "8646": "WhileĠtheĠ",
  "8647": "html",
  "8648": "cow",
  "8649": "pleĠ",
  "8650": "ruleĠ",
  "8651": "anningĠ",
  "8652": "ingsĠareĠ",
  "8653": "age.\n",
  "8654": "(R",
  "8655": "TO",
  "8656": "GY",
  "8657": "spat",
  "8658": "JĠ",
  "8659": "equalĠtoĠ",
  "8660": "isĠinĠ",
  "8661": "innerĠ",
  "8662": ".ĠPe",
  "8663": "Press",
  "8664": "University,Ġ",
  "8665": "age.Ġ",
  "8666": "hoursĠ",
  "8667": "1)",
  "8668": "reportedĠ",
  "8669": "estĠandĠ",
  "8670": "normal",
  "8671": "1996",
  "8672": "PhysicalĠ",
  "8673": "successfullyĠ",
  "8674": "forward",
  "8675": "ilosophy",
  "8676": "Know",
  "8677": "edĠwithĠaĠ",
  "8678": "However",
  "8679": "body,Ġ",
  "8680": "whoĠwasĠ",
  "8681": "erĠforĠ",
  "8682": "distantĠ",
  "8683": "iesĠtheĠ",
  "8684": "dramat",
  "8685": "moreĠandĠ",
  "8686": ".\nTheseĠ",
  "8687": ",Ġthough",
  "8688": "probabl",
  "8689": "udeĠ",
  "8690": "Darfur",
  "8691": "implyĠ",
  "8692": "rific",
  "8693": "weĠneedĠtoĠ",
  "8694": "Ġthreaten",
  "8695": "extract",
  "8696": "droughtĠ",
  "8697": "morn",
  "8698": "ification",
  "8699": "Jud",
  "8700": "mountainĠ",
  "8701": "drought",
  "8702": ".ĠAll",
  "8703": "parallel",
  "8704": "remoteĠ",
  "8705": "isĠnotĠaĠ",
  "8706": "Gulf",
  "8707": "sĠthat",
  "8708": "asĠaĠs",
  "8709": "makeĠitĠ",
  "8710": "iti",
  "8711": "inĠofĠ",
  "8712": "ers,ĠtheĠ",
  "8713": "Year",
  "8714": "church",
  "8715": "marg",
  "8716": "Nev",
  "8717": "alsĠandĠ",
  "8718": "When",
  "8719": "elih",
  "8720": "onsĠofĠ",
  "8721": "criter",
  "8722": "sĠto",
  "8723": "listĠofĠ",
  "8724": ":ĠAĠ",
  "8725": "correctĠ",
  "8726": "generatedĠ",
  "8727": "Ġtarget",
  "8728": "oday",
  "8729": "veter",
  "8730": "*Ġ",
  "8731": "I'mĠ",
  "8732": "edĠthem",
  "8733": "phoneĠ",
  "8734": "]\n",
  "8735": "land,Ġ",
  "8736": "findĠoutĠ",
  "8737": "ATION",
  "8738": "Ġtwent",
  "8739": "omal",
  "8740": "mountain",
  "8741": "es)Ġ",
  "8742": "ency,Ġ",
  "8743": "highlight",
  "8744": "harv",
  "8745": "isĠnowĠ",
  "8746": "magaz",
  "8747": "IX",
  "8748": "required",
  "8749": "estin",
  "8750": "methodsĠ",
  "8751": ".ĠandĠ",
  "8752": "one",
  "8753": "vehicleĠ",
  "8754": "notĠaĠ",
  "8755": "joint",
  "8756": ".A",
  "8757": "portĠofĠ",
  "8758": "countĠ",
  "8759": "Trad",
  "8760": "collectionĠ",
  "8761": "precip",
  "8762": "suitableĠ",
  "8763": "SW",
  "8764": ",ĠtheĠt",
  "8765": "ORĠ",
  "8766": "inchĠ",
  "8767": "degreeĠofĠ",
  "8768": "FoodĠ",
  "8769": "sizedĠ",
  "8770": "summ",
  "8771": "ios",
  "8772": "machineĠ",
  "8773": "herĠhusb",
  "8774": "armyĠ",
  "8775": "antibiot",
  "8776": "fearĠ",
  "8777": "novelĠ",
  "8778": "VT",
  "8779": "Fil",
  "8780": "ReferenceĠ",
  "8781": "situationĠ",
  "8782": "Ġsqu",
  "8783": "ed.Ġ",
  "8784": "year'sĠ",
  "8785": "constitutionĠ",
  "8786": "RabbiĠ",
  "8787": "pathway",
  "8788": "denatur",
  "8789": "omatoĠ",
  "8790": "beta-",
  "8791": "i.Ġ",
  "8792": "ITĠ",
  "8793": "polar",
  "8794": "fuelĠcell",
  "8795": "”,\n-Ġ",
  "8796": "unconform",
  "8797": "Cambod",
  "8798": "pulleyĠ",
  "8799": "backup",
  "8800": "squidĠ",
  "8801": "pulley",
  "8802": "Aust",
  "8803": "ĠthinkingĠ",
  "8804": "riedĠ",
  "8805": "country,Ġ",
  "8806": "erson",
  "8807": "subt",
  "8808": "consequenc",
  "8809": "hearĠ",
  "8810": "forĠallĠ",
  "8811": "speakingĠ",
  "8812": "spiritualĠ",
  "8813": "reson",
  "8814": "lost",
  "8815": "ScientistsĠ",
  "8816": "ratch",
  "8817": "onĠyourĠ",
  "8818": "discussionĠ",
  "8819": "ForĠtheĠ",
  "8820": "ProgramĠ",
  "8821": "structuresĠ",
  "8822": "es)",
  "8823": "Conn",
  "8824": "ifĠyou",
  "8825": "hasĠanĠ",
  "8826": "getĠaĠ",
  "8827": "figur",
  "8828": "Mel",
  "8829": "Common",
  "8830": "collectionĠofĠ",
  "8831": "vac",
  "8832": "itĠcanĠbeĠ",
  "8833": "propertiesĠ",
  "8834": "everyth",
  "8835": "ape",
  "8836": "enjo",
  "8837": "a.Ġ",
  "8838": "statu",
  "8839": "astronom",
  "8840": "foreĠ",
  "8841": "onĠthatĠ",
  "8842": "ulyĠ",
  "8843": "passĠ",
  "8844": "outerĠ",
  "8845": "effectĠonĠ",
  "8846": "ates,Ġ",
  "8847": "Onc",
  "8848": "Hop",
  "8849": "horiz",
  "8850": "blueĠ",
  "8851": "ĠsomeĠ",
  "8852": "selectedĠ",
  "8853": "ed.ĠThisĠ",
  "8854": "(th",
  "8855": "revealĠ",
  "8856": "similarĠtoĠ",
  "8857": "diagnosisĠ",
  "8858": "al,ĠandĠ",
  "8859": "acknowledg",
  "8860": "hardĠtoĠ",
  "8861": "born",
  "8862": "sportsĠ",
  "8863": "zen",
  "8864": "speakĠ",
  "8865": "asĠheĠ",
  "8866": "communicateĠ",
  "8867": "exposedĠtoĠ",
  "8868": "dynamicĠ",
  "8869": "functionalĠ",
  "8870": "straightĠ",
  "8871": "69",
  "8872": "duringĠaĠ",
  "8873": "Review",
  "8874": "Date:Ġ",
  "8875": "alys",
  "8876": "ationsĠinĠtheĠ",
  "8877": "long-",
  "8878": "immediateĠ",
  "8879": "held",
  "8880": "ationsĠofĠtheĠ",
  "8881": "alingĠ",
  "8882": "Langu",
  "8883": "Chic",
  "8884": "s,ĠinĠ",
  "8885": "efficient",
  "8886": "sĠcanĠbeĠ",
  "8887": "structures",
  "8888": "areĠalsoĠ",
  "8889": "mixt",
  "8890": "DI",
  "8891": "ronĠ",
  "8892": "eachĠotherĠ",
  "8893": "26Ġ",
  "8894": "Port",
  "8895": "ession",
  "8896": "circumstanc",
  "8897": "inĠ18",
  "8898": "ed,ĠbutĠ",
  "8899": "justiceĠ",
  "8900": "placedĠ",
  "8901": "ateĠtoĠ",
  "8902": "CivilĠWar",
  "8903": ",ĠwhereĠ",
  "8904": "atĠtheĠtim",
  "8905": "years",
  "8906": "dispers",
  "8907": ",ĠD",
  "8908": "otan",
  "8909": "length",
  "8910": "half-",
  "8911": "e—",
  "8912": "Rab",
  "8913": "dign",
  "8914": "Bibl",
  "8915": "periodĠofĠ",
  "8916": "glac",
  "8917": "awayĠfromĠ",
  "8918": "wallĠ",
  "8919": "classroomĠ",
  "8920": "organizedĠ",
  "8921": "got",
  "8922": "Republic",
  "8923": "Ok",
  "8924": "andĠtwoĠ",
  "8925": "uranium",
  "8926": "aĠmoreĠ",
  "8927": "world’sĠ",
  "8928": "Ġmill",
  "8929": "asit",
  "8930": "senseĠ",
  "8931": "agoĠ",
  "8932": "forĠitsĠ",
  "8933": "rhythm",
  "8934": "roleĠinĠtheĠ",
  "8935": "rovers",
  "8936": "Paul",
  "8937": "poison",
  "8938": "commission",
  "8939": "GreyĠ",
  "8940": "nast",
  "8941": "ĠtapeĠ",
  "8942": "enth",
  "8943": "vall",
  "8944": "corpor",
  "8945": "pointsĠ",
  "8946": "asteroidĠ",
  "8947": "haven",
  "8948": "enjoy",
  "8949": "Maj",
  "8950": "hill",
  "8951": "digit",
  "8952": "California",
  "8953": "fisheriesĠ",
  "8954": "approachĠtoĠ",
  "8955": "greenhouseĠ",
  "8956": "iscoĠ",
  "8957": "allowingĠ",
  "8958": "inaĠ",
  "8959": ".ĠTwoĠ",
  "8960": "eĠsuchĠ",
  "8961": "Hear",
  "8962": "rawĠ",
  "8963": "edĠthemĠ",
  "8964": ".ĠPeopl",
  "8965": "advic",
  "8966": ".ĠOf",
  "8967": "addingĠ",
  "8968": "DA",
  "8969": "afficĠ",
  "8970": "atĠB",
  "8971": "achieveĠ",
  "8972": "Andre",
  "8973": "forwardĠ",
  "8974": "ing\n-Ġ",
  "8975": "include:\n-Ġ",
  "8976": "home",
  "8977": "reven",
  "8978": "Oil",
  "8979": "applyĠ",
  "8980": "precipit",
  "8981": "PeterĠ",
  "8982": "e.ĠTheyĠ",
  "8983": "Haw",
  "8984": "suggestsĠthatĠ",
  "8985": "at'sĠ",
  "8986": "sail",
  "8987": "LatinĠ",
  "8988": "MA",
  "8989": "hourĠ",
  "8990": "ConferenceĠ",
  "8991": "nameĠofĠ",
  "8992": "proxim",
  "8993": "medicineĠ",
  "8994": "risingĠ",
  "8995": "input",
  "8996": "forcedĠ",
  "8997": "pep",
  "8998": "2010Ġ",
  "8999": "eteryĠ",
  "9000": "AustralianĠ",
  "9001": "saw",
  "9002": ".ĠTheĠt",
  "9003": "soul",
  "9004": "museum",
  "9005": ":Ġ(",
  "9006": "s.Ġ\"",
  "9007": "bomb",
  "9008": "Sov",
  "9009": "overĠtim",
  "9010": "HomeĠ",
  "9011": "involvesĠ",
  "9012": "bonĠ",
  "9013": "renewableĠ",
  "9014": "MeteorologicalĠ",
  "9015": "bacteria",
  "9016": "jam",
  "9017": "encounter",
  "9018": "HowĠtoĠ",
  "9019": "Provinc",
  "9020": "assembl",
  "9021": "Text",
  "9022": "lovedĠ",
  "9023": "eckĠ",
  "9024": "â€",
  "9025": "wo-",
  "9026": ".ĠAsĠtheĠ",
  "9027": "cyt",
  "9028": "bacterialĠ",
  "9029": "pept",
  "9030": "PRO",
  "9031": "studiedĠ",
  "9032": "breast",
  "9033": "omenĠ",
  "9034": "igrat",
  "9035": "arĠs",
  "9036": "CanadaĠ",
  "9037": "easantĠ",
  "9038": "oxygenĠ",
  "9039": "fulfill",
  "9040": "madeĠtheĠ",
  "9041": "horseĠ",
  "9042": "Hot",
  "9043": "peakĠ",
  "9044": "hepat",
  "9045": "ettl",
  "9046": "tiv",
  "9047": "ucell",
  "9048": "municip",
  "9049": "|\n|#",
  "9050": "jp",
  "9051": "breastĠcancerĠ",
  "9052": "HomoĠ",
  "9053": "fluorideĠ",
  "9054": "prisonĠ",
  "9055": "CD-R",
  "9056": "independenc",
  "9057": "ometh",
  "9058": "children'sĠ",
  "9059": "ballĠ",
  "9060": "dimensionalĠ",
  "9061": "dark",
  "9062": "infring",
  "9063": "oftware",
  "9064": "anyth",
  "9065": "alway",
  "9066": "continueĠ",
  "9067": "ickingĠ",
  "9068": "easierĠtoĠ",
  "9069": "programsĠ",
  "9070": "moreĠaboutĠ",
  "9071": "VolumeĠ",
  "9072": "youĠmayĠ",
  "9073": "withĠotherĠ",
  "9074": "releasedĠ",
  "9075": "rememberĠ",
  "9076": "hardw",
  "9077": "ingĠsystem",
  "9078": "now,Ġ",
  "9079": "adhes",
  "9080": "ynth",
  "9081": "whenĠweĠ",
  "9082": ".ĠDes",
  "9083": "addressĠtheĠ",
  "9084": "Ann",
  "9085": "Hunt",
  "9086": "Issu",
  "9087": "scientistĠ",
  "9088": "inĠotherĠ",
  "9089": "biggestĠ",
  "9090": "updat",
  "9091": "rapidlyĠ",
  "9092": "ableĠto",
  "9093": "ionsĠonĠ",
  "9094": "Teach",
  "9095": "ies.\n",
  "9096": "EdwardĠ",
  "9097": "widespreadĠ",
  "9098": "epidem",
  "9099": "statusĠ",
  "9100": "secureĠ",
  "9101": "oyĠ",
  "9102": "cutt",
  "9103": ",”ĠsaidĠ",
  "9104": "abilities",
  "9105": "edĠ(",
  "9106": "farĠasĠ",
  "9107": "precis",
  "9108": "ouseĠ",
  "9109": "aurĠ",
  "9110": "\nInĠ",
  "9111": "ait",
  "9112": "killĠ",
  "9113": "sureĠ",
  "9114": "early",
  "9115": "many",
  "9116": "aĠchildĠ",
  "9117": "helpingĠ",
  "9118": "yourĠchild",
  "9119": "properlyĠ",
  "9120": "operatedĠ",
  "9121": "Ġsecond",
  "9122": "chooseĠ",
  "9123": "scor",
  "9124": "combinedĠ",
  "9125": "Feb",
  "9126": "edĠtheĠt",
  "9127": "canĠhelpĠ",
  "9128": "distingu",
  "9129": "ofĠanĠ",
  "9130": "s\"",
  "9131": "meaningĠ",
  "9132": "understandingĠofĠtheĠ",
  "9133": ",ĠthatĠtheĠ",
  "9134": "facilitiesĠ",
  "9135": "Administr",
  "9136": "edĠasĠanĠ",
  "9137": "literat",
  "9138": "apor",
  "9139": "sizeĠofĠtheĠ",
  "9140": "olt",
  "9141": "inĠmanyĠ",
  "9142": "exactĠ",
  "9143": "icationĠ",
  "9144": "s.Ġ(",
  "9145": "extra",
  "9146": "IfĠtheĠ",
  "9147": "ArabĠ",
  "9148": "impos",
  "9149": "forĠhisĠ",
  "9150": ".ĠBecauseĠ",
  "9151": "inev",
  "9152": "onĠ(",
  "9153": "ibilityĠ",
  "9154": "sentĠ",
  "9155": "Frid",
  "9156": "agingĠ",
  "9157": "asksĠ",
  "9158": "atĠthisĠ",
  "9159": "intim",
  "9160": "ain,Ġ",
  "9161": "stoodĠ",
  "9162": "globalĠwarm",
  "9163": "springĠ",
  "9164": "hurrican",
  "9165": "Committe",
  "9166": "returnedĠtoĠ",
  "9167": "OceanĠ",
  "9168": "3,",
  "9169": "mittedĠ",
  "9170": "mobileĠ",
  "9171": "verte",
  "9172": "vertebr",
  "9173": ".ĠAĠs",
  "9174": "necessarilyĠ",
  "9175": "attemptĠtoĠ",
  "9176": "shell",
  "9177": "bottom",
  "9178": "attractĠ",
  "9179": "heatĠandĠ",
  "9180": "iĠ(",
  "9181": "Ven",
  "9182": "i'sĠ",
  "9183": "GoogleĠ",
  "9184": "education,Ġ",
  "9185": "metalĠ",
  "9186": "5.",
  "9187": "JapaneseĠ",
  "9188": "ealog",
  "9189": "sou",
  "9190": "pin",
  "9191": "accumul",
  "9192": "issueĠofĠ",
  "9193": ".ĠThey",
  "9194": "believeĠ",
  "9195": "IIIĠ",
  "9196": "controvers",
  "9197": "HolyĠ",
  "9198": "ProfessorĠ",
  "9199": "leopat",
  "9200": "brotherĠ",
  "9201": "'sĠt",
  "9202": "casesĠofĠ",
  "9203": "messag",
  "9204": "birdĠ",
  "9205": "upĠaĠ",
  "9206": "closelyĠ",
  "9207": "fit",
  "9208": "ione",
  "9209": "weakĠ",
  "9210": "participantsĠ",
  "9211": "olutionĠofĠ",
  "9212": "PL",
  "9213": "aĠloc",
  "9214": "Cult",
  "9215": "utureĠ",
  "9216": "Corn",
  "9217": "SanĠFrancisco",
  "9218": "linkedĠtoĠ",
  "9219": "Commission",
  "9220": "Camp",
  "9221": "visibleĠ",
  "9222": "oment",
  "9223": "-the-",
  "9224": "ĠtakeĠtheĠ",
  "9225": "\ntheĠ",
  "9226": "dividedĠ",
  "9227": "didn’tĠ",
  "9228": "oblig",
  "9229": "findĠtheĠ",
  "9230": "eĠtreatment",
  "9231": "yellowĠ",
  "9232": "vig",
  "9233": "s,ĠtoĠ",
  "9234": "arn",
  "9235": "58",
  "9236": "necessary",
  "9237": "1994",
  "9238": "brownĠ",
  "9239": "societyĠ",
  "9240": "policy",
  "9241": "needsĠtoĠbeĠ",
  "9242": "higher",
  "9243": "orph",
  "9244": "spendĠ",
  "9245": "forth",
  "9246": "drugsĠ",
  "9247": "PW",
  "9248": "Mun",
  "9249": "commod",
  "9250": "Court",
  "9251": "ityĠforĠ",
  "9252": "es,ĠorĠ",
  "9253": "sort",
  "9254": "AIDS",
  "9255": "Nut",
  "9256": "ing.Ġ",
  "9257": "Treat",
  "9258": "odeĠ",
  "9259": "permitĠ",
  "9260": "mediateĠ",
  "9261": "Mess",
  "9262": "ingredi",
  "9263": "forens",
  "9264": "NE",
  "9265": "Orthod",
  "9266": "gear",
  "9267": "Bet",
  "9268": "dependĠ",
  "9269": "whom",
  "9270": "zoneĠ",
  "9271": ".ĠReadĠ",
  "9272": "Abrah",
  "9273": "ks",
  "9274": ",ĠbutĠtheĠ",
  "9275": "evolutionistsĠ",
  "9276": "RichardĠ",
  "9277": "Granad",
  "9278": "femaleĠ",
  "9279": "remed",
  "9280": "eleph",
  "9281": "exped",
  "9282": "00ĠMPa",
  "9283": "structureĠofĠ",
  "9284": "MedicineĠ",
  "9285": "RepublicĠofĠ",
  "9286": "styl",
  "9287": "iatric",
  "9288": "binĠ",
  "9289": "ettoĠ",
  "9290": "WĠ",
  "9291": "Encycloped",
  "9292": "s?\n",
  "9293": "TOĠ",
  "9294": "dys",
  "9295": "oudin",
  "9296": "etiĠ",
  "9297": "PolishĠ",
  "9298": "spinĠ",
  "9299": ".Ġ—Ġ“",
  "9300": ",Ġbut",
  "9301": "achus",
  "9302": "achusett",
  "9303": "gent",
  "9304": "aĠT",
  "9305": "dream",
  "9306": "street",
  "9307": "frequentĠ",
  "9308": "intenseĠ",
  "9309": "sexĠ",
  "9310": "AreĠ",
  "9311": "tooĠ",
  "9312": "fromĠanĠ",
  "9313": "leavesĠ",
  "9314": "AIDSĠ",
  "9315": "happenĠ",
  "9316": "priceĠ",
  "9317": "etaryĠ",
  "9318": "won'tĠ",
  "9319": "ĠtheseĠt",
  "9320": "versionĠ",
  "9321": "WebĠsit",
  "9322": "updatedĠ",
  "9323": "informationĠaboutĠtheĠ",
  "9324": "serverĠ",
  "9325": "focusĠonĠ",
  "9326": "enterpris",
  "9327": "oneĠofĠtheseĠ",
  "9328": "butĠnotĠ",
  "9329": "aimsĠtoĠ",
  "9330": "CopyrightĠ",
  "9331": "plas",
  "9332": "rever",
  "9333": "superi",
  "9334": "costĠofĠ",
  "9335": "carryingĠ",
  "9336": "formsĠ",
  "9337": "spacecr",
  "9338": "soĠtheĠ",
  "9339": "Build",
  "9340": "detectĠ",
  "9341": "scatter",
  "9342": "epl",
  "9343": "current",
  "9344": "fascin",
  "9345": "&ĠM",
  "9346": ".ĠWhil",
  "9347": "infer",
  "9348": "reward",
  "9349": "foodsĠ",
  "9350": "comparisonĠ",
  "9351": "letterĠ",
  "9352": "sĠwithĠtheĠ",
  "9353": "agencyĠ",
  "9354": "characteriz",
  "9355": "umĠofĠ",
  "9356": "socialĠandĠ",
  "9357": "27Ġ",
  "9358": ".ĠAdd",
  "9359": "35Ġ",
  "9360": "authorsĠ",
  "9361": "ĠtimeĠtoĠ",
  "9362": "rootĠ",
  "9363": "ersĠorĠ",
  "9364": "’sĠtheĠ",
  "9365": "So",
  "9366": "isĠoftenĠ",
  "9367": "beĠtr",
  "9368": "followingĠtheĠ",
  "9369": "erĠorĠ",
  "9370": "ingĠthroughĠ",
  "9371": "suchĠasĠaĠ",
  "9372": "ed?\n",
  "9373": "ontoĠ",
  "9374": "ing.\nTheĠ",
  "9375": "irtyĠ",
  "9376": "eav",
  "9377": "IL",
  "9378": "professorĠ",
  "9379": "ensureĠthatĠ",
  "9380": "doctorsĠ",
  "9381": "ĠminutesĠ",
  "9382": "bloodĠpressure",
  "9383": "acquaintanceĠ",
  "9384": "ance.\n",
  "9385": "likeĠs",
  "9386": "ibleĠtoĠ",
  "9387": "objectsĠ",
  "9388": "eĠthe",
  "9389": "park",
  "9390": "activelyĠ",
  "9391": "FederalĠ",
  "9392": "edĠwith",
  "9393": "powerful",
  "9394": "aĠvarietyĠofĠ",
  "9395": "LincolnĠ",
  "9396": "nationĠ",
  "9397": "feltĠ",
  "9398": "keepingĠ",
  "9399": "chiefĠ",
  "9400": "place,Ġ",
  "9401": "Africa",
  "9402": "resourceĠ",
  "9403": "Ġtell",
  "9404": "Sand",
  "9405": "newĠc",
  "9406": "\nL",
  "9407": "heightĠ",
  "9408": "havingĠaĠ",
  "9409": "ĠthirdĠ",
  "9410": "lawsĠ",
  "9411": "watersĠ",
  "9412": "sea",
  "9413": "afterĠaĠ",
  "9414": "hang",
  "9415": "e.ĠHowever,Ġ",
  "9416": "graduateĠ",
  "9417": "stateĠandĠ",
  "9418": "revis",
  "9419": "forecast",
  "9420": "hitĠ",
  "9421": "floodĠ",
  "9422": "routin",
  "9423": "ManagementĠ",
  "9424": "history,Ġ",
  "9425": "edĠup",
  "9426": "ersĠinĠtheĠ",
  "9427": "cardsĠ",
  "9428": "atĠandĠ",
  "9429": "\nAĠ",
  "9430": "History",
  "9431": "constitutionalĠ",
  "9432": "campaignĠ",
  "9433": "ans,Ġ",
  "9434": "Mot",
  "9435": "whoĠwereĠ",
  "9436": "Oreg",
  "9437": "loseĠ",
  "9438": "wroteĠ",
  "9439": "Vall",
  "9440": "enorm",
  "9441": "ians",
  "9442": "dollar",
  "9443": "so-",
  "9444": "evidenceĠthatĠ",
  "9445": "usedĠbyĠ",
  "9446": "years.\n",
  "9447": "formul",
  "9448": "peopleĠinĠ",
  "9449": "ĠtoĠtr",
  "9450": "zenĠ",
  "9451": "daughter",
  "9452": "youngerĠ",
  "9453": "s.ĠAndĠ",
  "9454": "ESĠ",
  "9455": "\nThisĠ",
  "9456": "engĠ",
  "9457": "ateĠofĠ",
  "9458": "Constant",
  "9459": "erĠwasĠ",
  "9460": "findingĠ",
  "9461": "B.C",
  "9462": "AsiaĠ",
  "9463": "UnderĠtheĠ",
  "9464": "states",
  "9465": "successful",
  "9466": "rotĠ",
  "9467": "eĠthought",
  "9468": "ationĠbyĠ",
  "9469": "chanceĠofĠ",
  "9470": "publishedĠinĠtheĠ",
  "9471": "babyĠ",
  "9472": "conductedĠ",
  "9473": "communicat",
  "9474": "medit",
  "9475": "edĠtwoĠ",
  "9476": "inĠS",
  "9477": "sayĠthatĠ",
  "9478": "Hitl",
  "9479": "FranceĠ",
  "9480": "ographicalĠ",
  "9481": "openĠtoĠ",
  "9482": "workĠofĠ",
  "9483": "someĠt",
  "9484": "withĠitsĠ",
  "9485": "Pap",
  "9486": "climateĠchangeĠ",
  "9487": "ednes",
  "9488": "wereĠalsoĠ",
  "9489": "harvestĠ",
  "9490": "perpet",
  "9491": "cultiv",
  "9492": "brandĠ",
  "9493": "ery,Ġ",
  "9494": "MarineĠ",
  "9495": "Moor",
  "9496": "PeopleĠ",
  "9497": "bug",
  "9498": "vehiclesĠ",
  "9499": ".ĠCl",
  "9500": "beyondĠtheĠ",
  "9501": "wet",
  "9502": "ationĠforĠtheĠ",
  "9503": "areas,Ġ",
  "9504": "carbonĠmonoxideĠ",
  "9505": "eĠofĠanĠ",
  "9506": "vom",
  "9507": "ullĠ",
  "9508": "AssemblyĠ",
  "9509": "s.ĠF",
  "9510": "IM",
  "9511": "ubeĠ",
  "9512": "engineĠ",
  "9513": "–ĠtheĠ",
  "9514": "humanĠrightsĠ",
  "9515": "experimentsĠ",
  "9516": "person'sĠ",
  "9517": "plusĠ",
  "9518": "ploy",
  "9519": "craftĠ",
  "9520": "carefullyĠ",
  "9521": "rianĠ",
  "9522": "1:",
  "9523": "minimumĠ",
  "9524": "rod",
  "9525": "CR",
  "9526": "Arm",
  "9527": ".\nOnĠ",
  "9528": "remeĠ",
  "9529": "CollegeĠ",
  "9530": "ensitiv",
  "9531": "physician",
  "9532": "itu",
  "9533": "ontĠ",
  "9534": "en-",
  "9535": "leak",
  "9536": "shouldĠnotĠ",
  "9537": "ofĠthreeĠ",
  "9538": "fest",
  "9539": "ĠtransmissionĠ",
  "9540": "”ĠandĠ",
  "9541": "eĠisĠnotĠ",
  "9542": "becomeĠaĠ",
  "9543": "fract",
  "9544": "grasp",
  "9545": "Dom",
  "9546": "lock",
  "9547": "broadĠ",
  "9548": "YO",
  "9549": "contamin",
  "9550": "carbonĠdioxideĠ",
  "9551": "ophil",
  "9552": "digest",
  "9553": "Agricult",
  "9554": "pick",
  "9555": "manif",
  "9556": "surveyĠ",
  "9557": "fareĠ",
  "9558": "Medit",
  "9559": "isingĠ",
  "9560": "inĠ15",
  "9561": "doorĠ",
  "9562": "nutrient",
  "9563": "aun",
  "9564": "robialĠ",
  "9565": "straw",
  "9566": "studiedĠtheĠ",
  "9567": "changesĠinĠtheĠ",
  "9568": "ability,Ġ",
  "9569": "cook",
  "9570": "disease.Ġ",
  "9571": "autom",
  "9572": "Ġmillion",
  "9573": "km",
  "9574": "inert",
  "9575": "wip",
  "9576": "Vit",
  "9577": "elescop",
  "9578": "</",
  "9579": "ignett",
  "9580": "ethyl",
  "9581": "stepperĠ",
  "9582": "Phuk",
  "9583": "PhnomĠPen",
  "9584": "PhnomĠPenhĠ",
  "9585": "Sereng",
  "9586": "documentĠ",
  "9587": "Jef",
  "9588": "seemĠ",
  "9589": "maybeĠ",
  "9590": "linkĠ",
  "9591": "childhoodĠ",
  "9592": "ingsĠthatĠ",
  "9593": "e,ĠandĠtheĠ",
  "9594": "releaseĠ",
  "9595": "isn'tĠ",
  "9596": "itĠwouldĠ",
  "9597": "Micros",
  "9598": "s\"Ġ",
  "9599": ").Ġ",
  "9600": "seatĠ",
  "9601": "aultĠ",
  "9602": "aĠsecondĠ",
  "9603": "ineĠofĠ",
  "9604": ".\nThereĠareĠ",
  "9605": "aĠG",
  "9606": "revolutionaryĠ",
  "9607": "ResearchersĠ",
  "9608": "se-",
  "9609": "gingĠ",
  "9610": "novel",
  "9611": "InĠthisĠ",
  "9612": "chain",
  "9613": "s\nTheĠ",
  "9614": "MaryĠ",
  "9615": "knowĠtheĠ",
  "9616": "watchĠ",
  "9617": "Land",
  "9618": "discoveredĠ",
  "9619": "nois",
  "9620": "ebook",
  "9621": "\"ĠandĠ",
  "9622": "grewĠ",
  "9623": "ographyĠ",
  "9624": "UKĠ",
  "9625": "portra",
  "9626": "Kather",
  "9627": "afford",
  "9628": "subsequentĠ",
  "9629": "India",
  "9630": "ASD",
  "9631": "Ep",
  "9632": "childrenĠandĠ",
  "9633": "Fri",
  "9634": "seed",
  "9635": "plug",
  "9636": ".ĠOnc",
  "9637": "DV",
  "9638": "respectively",
  "9639": "capableĠofĠ",
  "9640": "SU",
  "9641": "levelsĠ",
  "9642": "drawĠ",
  "9643": "atedĠtoĠ",
  "9644": "Templ",
  "9645": "ĠtimeĠandĠ",
  "9646": "quality",
  "9647": "helpĠtheĠ",
  "9648": "ĠtermĠ",
  "9649": "elder",
  "9650": "ĠtreatedĠ",
  "9651": "strengthĠ",
  "9652": "interfer",
  "9653": "aboutĠaĠ",
  "9654": "Test",
  "9655": "stanceĠ",
  "9656": "ĠtwiceĠ",
  "9657": "ician",
  "9658": "&ĠS",
  "9659": "Therap",
  "9660": "Book",
  "9661": "rulesĠ",
  "9662": "Mas",
  "9663": "confident",
  "9664": "e-basedĠ",
  "9665": "MichaelĠ",
  "9666": ".\nTheyĠ",
  "9667": "aĠF",
  "9668": "forĠyourĠ",
  "9669": "weĠs",
  "9670": "s.ĠWeĠ",
  "9671": "canĠonlyĠ",
  "9672": "e,ĠasĠ",
  "9673": "vitalĠ",
  "9674": "valid",
  "9675": "vag",
  "9676": "consistsĠofĠ",
  "9677": "ance.Ġ",
  "9678": "relevantĠ",
  "9679": "AtĠtheĠ",
  "9680": "commentsĠ",
  "9681": "ansport",
  "9682": "of-",
  "9683": "strategiesĠ",
  "9684": "shedĠ",
  "9685": "relativeĠ",
  "9686": ")ĠorĠ",
  "9687": "ersĠtoĠtheĠ",
  "9688": ",ĠincludingĠ",
  "9689": "thrit",
  "9690": "rayĠ",
  "9691": "s'",
  "9692": "photos",
  "9693": "yearsĠold",
  "9694": "entĠofĠtheĠ",
  "9695": "61",
  "9696": "wasĠthatĠ",
  "9697": "men,Ġ",
  "9698": "supre",
  "9699": "sub-",
  "9700": "wealth",
  "9701": "lerĠ",
  "9702": "mirac",
  "9703": "leĠtoĠ",
  "9704": "endang",
  "9705": "handsĠ",
  "9706": "ram",
  "9707": "responseĠ",
  "9708": "stageĠ",
  "9709": "s.ĠInĠtheĠ",
  "9710": "ropicalĠ",
  "9711": "communicationĠ",
  "9712": "ersĠwithĠ",
  "9713": "directionĠ",
  "9714": "startingĠ",
  "9715": "anksĠ",
  "9716": "causedĠ",
  "9717": "ServiceĠ",
  "9718": "ĠmilesĠ",
  "9719": "loop",
  "9720": "decor",
  "9721": "fairlyĠ",
  "9722": "ershipĠ",
  "9723": "leadership",
  "9724": "ixĠ",
  "9725": "itiz",
  "9726": "UniversityĠPres",
  "9727": "Leg",
  "9728": "roughĠtheĠ",
  "9729": "representativeĠ",
  "9730": ".ĠYou",
  "9731": "chargeĠ",
  "9732": "coreĠ",
  "9733": "sideĠofĠtheĠ",
  "9734": "Extr",
  "9735": "affin",
  "9736": "es.ĠTheyĠ",
  "9737": "electricity",
  "9738": "groupsĠofĠ",
  "9739": "attleĠ",
  "9740": "undĠ",
  "9741": "decom",
  "9742": "20-",
  "9743": "Ġso",
  "9744": ".ĠPer",
  "9745": "justĠasĠ",
  "9746": "Polic",
  "9747": "PO",
  "9748": "forĠexampl",
  "9749": "carg",
  "9750": "factoryĠ",
  "9751": "ultimatelyĠ",
  "9752": "1ĠtoĠ",
  "9753": "Mac",
  "9754": "ownedĠ",
  "9755": "eĠthenĠ",
  "9756": "icideĠ",
  "9757": "discussĠtheĠ",
  "9758": "usion",
  "9759": "orang",
  "9760": "test",
  "9761": "shouldĠnotĠbeĠ",
  "9762": "hereĠtoĠ",
  "9763": "que",
  "9764": "participant",
  "9765": "Harv",
  "9766": "cheap",
  "9767": "cart",
  "9768": "overe",
  "9769": "representĠ",
  "9770": "lifest",
  "9771": "1930",
  "9772": "goal",
  "9773": "formingĠ",
  "9774": "Bor",
  "9775": "CA\n",
  "9776": "vin",
  "9777": "bour",
  "9778": "UK",
  "9779": "yellow",
  "9780": "ve",
  "9781": "Ġtemperature",
  "9782": "mostĠofĠ",
  "9783": "codeĠ",
  "9784": "-term",
  "9785": "hasĠnotĠ",
  "9786": ".\nAnĠ",
  "9787": "weather",
  "9788": "causesĠofĠ",
  "9789": ",ĠthereĠwereĠ",
  "9790": "an'sĠ",
  "9791": "ninet",
  "9792": "countyĠ",
  "9793": "changedĠ",
  "9794": "guarante",
  "9795": "2013Ġ",
  "9796": "Aff",
  "9797": "Affair",
  "9798": "ogetherĠ",
  "9799": "relyĠ",
  "9800": "insuranceĠ",
  "9801": "Chief",
  "9802": "letter",
  "9803": "alm",
  "9804": "pond",
  "9805": "s.ĠButĠ",
  "9806": "es,ĠincludingĠ",
  "9807": "Ju",
  "9808": "ember,Ġ",
  "9809": "),ĠaĠ",
  "9810": "discussĠ",
  "9811": "ethnicĠ",
  "9812": "peopleĠofĠ",
  "9813": "inĠmyĠ",
  "9814": "orbitĠ",
  "9815": "CollegeĠofĠ",
  "9816": "pock",
  "9817": "compens",
  "9818": "Brazil",
  "9819": "democrac",
  "9820": "exclud",
  "9821": "unknown",
  "9822": "auc",
  "9823": "kĠ(",
  "9824": "Hand",
  "9825": "infectionĠ",
  "9826": "ethod",
  "9827": "mill",
  "9828": "nation'sĠ",
  "9829": "75Ġ",
  "9830": "\nP",
  "9831": "life.\n",
  "9832": ".ĠGrass",
  "9833": "cold",
  "9834": "reatĠ",
  "9835": "anit",
  "9836": "ColumbiaĠ",
  "9837": "Secret",
  "9838": "AsianĠ",
  "9839": "liament",
  "9840": "compuls",
  "9841": "debr",
  "9842": "Knor",
  "9843": "Knorr",
  "9844": "juic",
  "9845": "sensitiveĠ",
  "9846": "higherĠthanĠ",
  "9847": "1-8",
  "9848": "proteinsĠ",
  "9849": "antioxid",
  "9850": "delinqu",
  "9851": "mul",
  "9852": "prophet",
  "9853": "fung",
  "9854": "unnel",
  "9855": "giantĠ",
  "9856": "Lazar",
  "9857": "certific",
  "9858": "reluct",
  "9859": "ocyteĠ",
  "9860": "warr",
  "9861": "dataĠprocessingĠ",
  "9862": "brucell",
  "9863": "deckĠ",
  "9864": "disclos",
  "9865": "menisc",
  "9866": "assad",
  "9867": "Kowai",
  "9868": "gravelsĠ",
  "9869": "E-C",
  "9870": "provincialĠ",
  "9871": "NgorongoroĠ",
  "9872": "MaasaiĠ",
  "9873": "shippingĠ",
  "9874": "lycopen",
  "9875": "sameĠs",
  "9876": "sufferĠ",
  "9877": "Contin",
  "9878": "responsibilityĠ",
  "9879": "outĠtoĠ",
  "9880": "ndĠ",
  "9881": "radioĠ",
  "9882": "aspectĠ",
  "9883": "chanceĠtoĠ",
  "9884": "uousĠ",
  "9885": "sem",
  "9886": ").ĠInĠ",
  "9887": "itĠforĠ",
  "9888": "ĠthatĠyouĠ",
  "9889": "volumeĠ",
  "9890": "benefitsĠofĠ",
  "9891": "eĠserv",
  "9892": "elseĠ",
  "9893": "More",
  "9894": "asĠmanyĠ",
  "9895": "devicesĠ",
  "9896": "applicationĠ",
  "9897": "However,ĠtheĠ",
  "9898": "onlyĠaĠ",
  "9899": ".ĠAp",
  "9900": "needsĠ",
  "9901": "StandardĠ",
  "9902": "servicesĠ",
  "9903": "Wil",
  "9904": "interfac",
  "9905": "08",
  "9906": ",Ġ2010",
  "9907": "Ġme",
  "9908": "spinningĠ",
  "9909": "citizensĠ",
  "9910": "citiesĠ",
  "9911": ",ĠareĠ",
  "9912": "incid",
  "9913": "slowlyĠ",
  "9914": "lessonĠ",
  "9915": "primeĠ",
  "9916": "ledĠtoĠ",
  "9917": "aspectsĠofĠ",
  "9918": "extendedĠ",
  "9919": "evenĠtheĠ",
  "9920": "usedĠtheĠ",
  "9921": "spectr",
  "9922": "conditions,Ġ",
  "9923": "focusesĠ",
  "9924": ",ĠifĠ",
  "9925": "disorder",
  "9926": "email@exampl",
  "9927": "email@example.com",
  "9928": "idealĠ",
  "9929": "whenĠtheyĠareĠ",
  "9930": "elf-",
  "9931": "idea",
  "9932": "opticalĠ",
  "9933": "rank",
  "9934": "respectĠ",
  "9935": "attent",
  "9936": "catch",
  "9937": "impactĠofĠ",
  "9938": "effectivelyĠ",
  "9939": "rectionĠ",
  "9940": "surgeryĠ",
  "9941": ".\nSt",
  "9942": "3)",
  "9943": "oldestĠ",
  "9944": "edĠtoĠhaveĠ",
  "9945": "aum",
  "9946": "isĠisĠ",
  "9947": "Jr",
  "9948": "Reduc",
  "9949": "receivingĠ",
  "9950": "teenĠ",
  "9951": "Quest",
  "9952": "e.org",
  "9953": "21,Ġ",
  "9954": "esĠthisĠ",
  "9955": "ĠtoĠanĠ",
  "9956": "iousĠandĠ",
  "9957": "phras",
  "9958": "ĠthereĠisĠaĠ",
  "9959": "whichĠheĠ",
  "9960": "ĠtoĠhisĠ",
  "9961": "onĠhisĠ",
  "9962": "capacityĠ",
  "9963": "conceptĠ",
  "9964": "2012,Ġ",
  "9965": "esĠisĠ",
  "9966": "NorthĠCarolin",
  "9967": ".\nAccordingĠtoĠ",
  "9968": "SolarĠ",
  "9969": "aĠveryĠ",
  "9970": "ally,ĠtheĠ",
  "9971": "suscept",
  "9972": "failedĠtoĠ",
  "9973": "convinc",
  "9974": "strang",
  "9975": "President",
  "9976": "gon",
  "9977": "ongoingĠ",
  "9978": "foundĠinĠtheĠ",
  "9979": "needsĠtoĠ",
  "9980": "(andĠ",
  "9981": "complicatedĠ",
  "9982": "Polit",
  "9983": ".ĠBe",
  "9984": "unlessĠ",
  "9985": "whyĠtheĠ",
  "9986": "endĠtoĠ",
  "9987": "enantĠ",
  "9988": "ConservationĠ",
  "9989": "erĠinĠtheĠ",
  "9990": "Ġtum",
  "9991": "noteĠ",
  "9992": "IĠwouldĠ",
  "9993": "possibilityĠofĠ",
  "9994": "StudiesĠ",
  "9995": "naturalĠgasĠ",
  "9996": "returnĠtoĠ",
  "9997": "GulfĠofĠ",
  "9998": "esĠandĠotherĠ",
  "9999": "2005Ġ",
  "10000": "uateĠ",
  "10001": "fly",
  "10002": "readyĠtoĠ",
  "10003": "s.ĠP",
  "10004": ",ĠandĠH",
  "10005": "Louisian",
  "10006": "cub",
  "10007": "providesĠaĠ",
  "10008": "jump",
  "10009": "sheet",
  "10010": "madĠ",
  "10011": "e/",
  "10012": "Ġminutes",
  "10013": "stopp",
  "10014": "sponsor",
  "10015": "resent",
  "10016": "Ef",
  "10017": "ideaĠofĠ",
  "10018": "ral",
  "10019": "styleĠ",
  "10020": "becameĠtheĠ",
  "10021": "\nW",
  "10022": ".ĠAfterĠtheĠ",
  "10023": "fromĠthisĠ",
  "10024": "human-",
  "10025": "harmfulĠ",
  "10026": "proveĠ",
  "10027": "ere’sĠ",
  "10028": "sĠatĠtheĠ",
  "10029": "flight",
  "10030": "isĠaboutĠ",
  "10031": "aĠorĠ",
  "10032": "OFĠ",
  "10033": ".ĠFrom",
  "10034": "cin",
  "10035": "Pop",
  "10036": "eont",
  "10037": "million",
  "10038": "followedĠ",
  "10039": "perception",
  "10040": "ingĠwhatĠ",
  "10041": "ranĠ",
  "10042": "scrib",
  "10043": "ridg",
  "10044": "SR",
  "10045": "ModernĠ",
  "10046": "analog",
  "10047": ":Ġ“",
  "10048": "advantageĠ",
  "10049": "eĠtheirĠownĠ",
  "10050": "adviceĠ",
  "10051": "gro",
  "10052": "degreesĠ",
  "10053": "appingĠ",
  "10054": "Ec",
  "10055": "ovĠ",
  "10056": ",”ĠsaysĠ",
  "10057": "ingĠthat",
  "10058": "multi-",
  "10059": "Cr",
  "10060": "ired",
  "10061": "MuseumĠofĠ",
  "10062": "LosĠ",
  "10063": "chair",
  "10064": "countries,Ġ",
  "10065": "itorĠ",
  "10066": "meant",
  "10067": "paramet",
  "10068": ".\n1",
  "10069": "holdingĠ",
  "10070": "ĠsystemĠ",
  "10071": "substantialĠ",
  "10072": "EuropeĠ",
  "10073": "ControlledĠ",
  "10074": "country'sĠ",
  "10075": "penalt",
  "10076": "economyĠ",
  "10077": "stom",
  "10078": "offe",
  "10079": "Medicin",
  "10080": "aer",
  "10081": "ket",
  "10082": "ennes",
  "10083": "olid",
  "10084": "committe",
  "10085": "frontĠ",
  "10086": "emperature",
  "10087": "Wal",
  "10088": "valuableĠ",
  "10089": "andĠtoĠtheĠ",
  "10090": ")ĠwasĠ",
  "10091": "engineeringĠ",
  "10092": "hormon",
  "10093": "willĠalsoĠ",
  "10094": "interactionsĠ",
  "10095": "SchoolĠ",
  "10096": "Soyu",
  "10097": "L,Ġ",
  "10098": "sourcesĠofĠ",
  "10099": "coastalĠ",
  "10100": "agriculturalĠ",
  "10101": "earthqu",
  "10102": "Ġtomato",
  "10103": ",ĠbyĠ",
  "10104": "alizationĠ",
  "10105": "Declar",
  "10106": "whateverĠ",
  "10107": "variableĠ",
  "10108": "g/",
  "10109": ",Ġ2013",
  "10110": "Cz",
  "10111": "bath",
  "10112": "itsĠt",
  "10113": "noneĠ",
  "10114": "7:",
  "10115": ".\nAtĠ",
  "10116": "a.",
  "10117": "regardingĠtheĠ",
  "10118": "descend",
  "10119": ".ĠAt",
  "10120": "arityĠ",
  "10121": "meetĠtheĠ",
  "10122": "debateĠ",
  "10123": "EarlyĠ",
  "10124": "clock",
  "10125": "ion,ĠandĠ",
  "10126": "mentĠtoĠ",
  "10127": "ĠtimesĠtheĠ",
  "10128": "Josep",
  "10129": "JosephĠ",
  "10130": "warn",
  "10131": "case",
  "10132": "fal",
  "10133": "Evolution",
  "10134": "ĠthatĠcanĠ",
  "10135": "ArmyĠ",
  "10136": "appedĠ",
  "10137": "knew",
  "10138": "survey",
  "10139": "odg",
  "10140": "strand",
  "10141": ")ĠofĠ",
  "10142": "90Ġ",
  "10143": "pledg",
  "10144": "consumptionĠ",
  "10145": "acchar",
  "10146": "racell",
  "10147": "600",
  "10148": "showsĠthatĠ",
  "10149": "exposedĠ",
  "10150": "emuls",
  "10151": "2Ġ(",
  "10152": "dispos",
  "10153": ".J",
  "10154": "failure",
  "10155": "ĠsuchĠ",
  "10156": "insert",
  "10157": "evilĠ",
  "10158": "more",
  "10159": "givenĠtheĠ",
  "10160": "invention",
  "10161": "chrom",
  "10162": "BNĠ",
  "10163": "PAR",
  "10164": "recognizedĠ",
  "10165": "dinos",
  "10166": "SecurityĠ",
  "10167": "navalĠ",
  "10168": "JewsĠofĠ",
  "10169": "anem",
  "10170": "Kam",
  "10171": "adr",
  "10172": "intellectualĠpropert",
  "10173": "K-M",
  "10174": "recordingĠ",
  "10175": "beatsĠperĠ",
  "10176": "faqihĠ",
  "10177": "unemploy",
  "10178": "ersonĠ",
  "10179": "childrenĠareĠ",
  "10180": "airplan",
  "10181": "perspectiv",
  "10182": "CT",
  "10183": "licensingĠ",
  "10184": "y:Ġ",
  "10185": "AĠs",
  "10186": "limitsĠ",
  "10187": "ide,Ġ",
  "10188": "UserĠ",
  "10189": "youĠs",
  "10190": "inĠtermsĠofĠ",
  "10191": "products,Ġ",
  "10192": "s.ĠForĠ",
  "10193": "availableĠtoĠ",
  "10194": ".ĠWe",
  "10195": "moreĠthanĠoneĠ",
  "10196": "asĠyouĠ",
  "10197": "ptionĠofĠ",
  "10198": "case,Ġ",
  "10199": "\"ĠofĠ",
  "10200": "Virt",
  "10201": "LibraryĠ",
  "10202": "Orig",
  "10203": "here.\n",
  "10204": "desalinationĠ",
  "10205": "First",
  "10206": "conventionalĠ",
  "10207": "polym",
  "10208": "controlĠtheĠ",
  "10209": "large-",
  "10210": "Te",
  "10211": "esape",
  "10212": "NatureĠ",
  "10213": "France,Ġ",
  "10214": "further",
  "10215": "changingĠtheĠ",
  "10216": "Bre",
  "10217": "demonstratedĠ",
  "10218": "foldĠ",
  "10219": "Swed",
  "10220": "poet",
  "10221": "s.\"\n",
  "10222": "Dre",
  "10223": "componentsĠ",
  "10224": "III",
  "10225": "forcedĠtoĠ",
  "10226": "incent",
  "10227": "officeĠ",
  "10228": "autonom",
  "10229": "Disord",
  "10230": "s.\nThisĠ",
  "10231": "eill",
  "10232": "SD",
  "10233": "studiesĠhaveĠ",
  "10234": "professional",
  "10235": "lowestĠ",
  "10236": "increasesĠ",
  "10237": "impossibl",
  "10238": "CommunityĠ",
  "10239": "statistic",
  "10240": "wonder",
  "10241": "ĠthingĠ",
  "10242": "area,Ġ",
  "10243": "eĠthroughĠtheĠ",
  "10244": "prompt",
  "10245": "ides",
  "10246": "generationĠofĠ",
  "10247": "y.Ġ",
  "10248": "supportingĠ",
  "10249": ".ĠInĠaddition,Ġ",
  "10250": "LOGY",
  "10251": "whel",
  "10252": "beingĠtheĠ",
  "10253": "firmĠ",
  "10254": "hospitalĠ",
  "10255": "developmentĠofĠtheĠ",
  "10256": "Ġtoler",
  "10257": "procedureĠ",
  "10258": "ourselv",
  "10259": "ationĠorĠ",
  "10260": "etĠal.Ġ(",
  "10261": "18,Ġ",
[...]
